// Auto-generated file from model.tflite
#ifndef MODEL_TFLITE_H
#define MODEL_TFLITE_H

// Model data array
const unsigned char cifar10_model_quant_tflite[] = {
    0x20, 0x00, 0x00, 0x00, 0x54, 0x46, 0x4c, 0x33, 0x00, 0x00, 0x00, 0x00, 
    0x14, 0x00, 0x20, 0x00, 0x1c, 0x00, 0x18, 0x00, 0x14, 0x00, 0x10, 0x00, 
    0x0c, 0x00, 0x00, 0x00, 0x08, 0x00, 0x04, 0x00, 0x14, 0x00, 0x00, 0x00, 
    0x1c, 0x00, 0x00, 0x00, 0x80, 0x00, 0x00, 0x00, 0xd8, 0x00, 0x00, 0x00, 
    0xbc, 0x1a, 0x00, 0x00, 0xcc, 0x1a, 0x00, 0x00, 0xc0, 0x2e, 0x00, 0x00, 
    0x03, 0x00, 0x00, 0x00, 0x01, 0x00, 0x00, 0x00, 0x04, 0x00, 0x00, 0x00, 
    0xc2, 0xe4, 0xff, 0xff, 0x0c, 0x00, 0x00, 0x00, 0x1c, 0x00, 0x00, 0x00, 
    0x38, 0x00, 0x00, 0x00, 0x0f, 0x00, 0x00, 0x00, 0x73, 0x65, 0x72, 0x76, 
    0x69, 0x6e, 0x67, 0x5f, 0x64, 0x65, 0x66, 0x61, 0x75, 0x6c, 0x74, 0x00, 
    0x01, 0x00, 0x00, 0x00, 0x04, 0x00, 0x00, 0x00, 0x9c, 0xff, 0xff, 0xff, 
    0x13, 0x00, 0x00, 0x00, 0x04, 0x00, 0x00, 0x00, 0x07, 0x00, 0x00, 0x00, 
    0x64, 0x65, 0x6e, 0x73, 0x65, 0x5f, 0x33, 0x00, 0x01, 0x00, 0x00, 0x00, 
    0x04, 0x00, 0x00, 0x00, 0xca, 0xe5, 0xff, 0xff, 0x04, 0x00, 0x00, 0x00, 
    0x07, 0x00, 0x00, 0x00, 0x69, 0x6e, 0x70, 0x75, 0x74, 0x5f, 0x34, 0x00, 
    0x02, 0x00, 0x00, 0x00, 0x34, 0x00, 0x00, 0x00, 0x04, 0x00, 0x00, 0x00, 
    0xdc, 0xff, 0xff, 0xff, 0x16, 0x00, 0x00, 0x00, 0x04, 0x00, 0x00, 0x00, 
    0x13, 0x00, 0x00, 0x00, 0x43, 0x4f, 0x4e, 0x56, 0x45, 0x52, 0x53, 0x49, 
    0x4f, 0x4e, 0x5f, 0x4d, 0x45, 0x54, 0x41, 0x44, 0x41, 0x54, 0x41, 0x00, 
    0x08, 0x00, 0x0c, 0x00, 0x08, 0x00, 0x04, 0x00, 0x08, 0x00, 0x00, 0x00, 
    0x15, 0x00, 0x00, 0x00, 0x04, 0x00, 0x00, 0x00, 0x13, 0x00, 0x00, 0x00, 
    0x6d, 0x69, 0x6e, 0x5f, 0x72, 0x75, 0x6e, 0x74, 0x69, 0x6d, 0x65, 0x5f, 
    0x76, 0x65, 0x72, 0x73, 0x69, 0x6f, 0x6e, 0x00, 0x17, 0x00, 0x00, 0x00, 
    0xe0, 0x19, 0x00, 0x00, 0xd8, 0x19, 0x00, 0x00, 0xc0, 0x19, 0x00, 0x00, 
    0xa4, 0x19, 0x00, 0x00, 0x74, 0x19, 0x00, 0x00, 0xe4, 0x18, 0x00, 0x00, 
    0xd4, 0x06, 0x00, 0x00, 0x84, 0x06, 0x00, 0x00, 0xf4, 0x01, 0x00, 0x00, 
    0xc4, 0x01, 0x00, 0x00, 0xdc, 0x00, 0x00, 0x00, 0xd4, 0x00, 0x00, 0x00, 
    0xcc, 0x00, 0x00, 0x00, 0xc4, 0x00, 0x00, 0x00, 0xbc, 0x00, 0x00, 0x00, 
    0xb4, 0x00, 0x00, 0x00, 0xac, 0x00, 0x00, 0x00, 0xa4, 0x00, 0x00, 0x00, 
    0x9c, 0x00, 0x00, 0x00, 0x94, 0x00, 0x00, 0x00, 0x8c, 0x00, 0x00, 0x00, 
    0x6c, 0x00, 0x00, 0x00, 0x04, 0x00, 0x00, 0x00, 0x9a, 0xe6, 0xff, 0xff, 
    0x04, 0x00, 0x00, 0x00, 0x58, 0x00, 0x00, 0x00, 0x0c, 0x00, 0x00, 0x00, 
    0x08, 0x00, 0x0e, 0x00, 0x08, 0x00, 0x04, 0x00, 0x08, 0x00, 0x00, 0x00, 
    0x10, 0x00, 0x00, 0x00, 0x28, 0x00, 0x00, 0x00, 0x00, 0x00, 0x06, 0x00, 
    0x08, 0x00, 0x04, 0x00, 0x06, 0x00, 0x00, 0x00, 0x04, 0x00, 0x00, 0x00, 
    0x01, 0x00, 0x00, 0x00, 0xeb, 0x03, 0x00, 0x00, 0x00, 0x00, 0x0a, 0x00, 
    0x10, 0x00, 0x0c, 0x00, 0x08, 0x00, 0x04, 0x00, 0x0a, 0x00, 0x00, 0x00, 
    0x02, 0x00, 0x00, 0x00, 0x02, 0x00, 0x00, 0x00, 0x04, 0x00, 0x00, 0x00, 
    0x06, 0x00, 0x00, 0x00, 0x32, 0x2e, 0x31, 0x34, 0x2e, 0x30, 0x00, 0x00, 
    0xfe, 0xe6, 0xff, 0xff, 0x04, 0x00, 0x00, 0x00, 0x10, 0x00, 0x00, 0x00, 
    0x31, 0x2e, 0x31, 0x34, 0x2e, 0x30, 0x00, 0x00, 0x00, 0x00, 0x00, 0x00, 
    0x00, 0x00, 0x00, 0x00, 0xf0, 0xd3, 0xff, 0xff, 0xf4, 0xd3, 0xff, 0xff, 
    0xf8, 0xd3, 0xff, 0xff, 0xfc, 0xd3, 0xff, 0xff, 0x00, 0xd4, 0xff, 0xff, 
    0x04, 0xd4, 0xff, 0xff, 0x08, 0xd4, 0xff, 0xff, 0x0c, 0xd4, 0xff, 0xff, 
    0x10, 0xd4, 0xff, 0xff, 0x14, 0xd4, 0xff, 0xff, 0x42, 0xe7, 0xff, 0xff, 
    0x04, 0x00, 0x00, 0x00, 0xd8, 0x00, 0x00, 0x00, 0xeb, 0xbe, 0x04, 0xfb, 
    0xd5, 0x24, 0x04, 0xca, 0xf1, 0xe4, 0x77, 0x8d, 0xb3, 0x7f, 0xca, 0xa1, 
    0x7f, 0xff, 0xe7, 0xdd, 0x21, 0x0f, 0x0d, 0xad, 0x01, 0x25, 0xbf, 0xa4, 
    0xc6, 0x7f, 0x73, 0x67, 0xf1, 0xd1, 0x3b, 0x0b, 0xfb, 0x74, 0x6f, 0xc7, 
    0xd8, 0x1a, 0x2c, 0x18, 0x24, 0x88, 0xec, 0xf2, 0xe2, 0x9d, 0xee, 0xa6, 
    0x32, 0x09, 0x2d, 0xf3, 0x0c, 0xb5, 0x38, 0x17, 0x50, 0x27, 0x7f, 0xe9, 
    0x0e, 0xd5, 0xa3, 0x5a, 0x3c, 0x4a, 0x28, 0x3f, 0xe1, 0x19, 0x2e, 0x25, 
    0x0e, 0x78, 0x16, 0xd4, 0x69, 0x01, 0x7f, 0xeb, 0x15, 0x2d, 0x7c, 0x4e, 
    0x34, 0x4e, 0x93, 0x39, 0x07, 0xfd, 0x41, 0x08, 0xd2, 0xd2, 0x39, 0xc0, 
    0x59, 0x1f, 0xca, 0xad, 0x3d, 0x0b, 0xcc, 0x39, 0x7f, 0x1f, 0xc0, 0x70, 
    0x1b, 0x32, 0xf0, 0xe0, 0x29, 0x78, 0x5c, 0xa9, 0x6e, 0x46, 0xbc, 0xd7, 
    0x10, 0xb5, 0x51, 0x52, 0xef, 0x4f, 0xb1, 0x64, 0x1c, 0x3c, 0x03, 0x26, 
    0x76, 0x06, 0x5e, 0x6b, 0x7f, 0x95, 0xfd, 0xfe, 0x0e, 0x17, 0x7a, 0x0f, 
    0xc8, 0x5a, 0xea, 0xd5, 0x68, 0x0c, 0xc8, 0xf0, 0xcc, 0x27, 0xc4, 0xf1, 
    0x12, 0x2b, 0x4b, 0xf0, 0xe2, 0xc0, 0x0a, 0xfd, 0xfe, 0xaa, 0xbf, 0x0e, 
    0xa8, 0xde, 0x66, 0xf0, 0x9d, 0x7f, 0xbb, 0xc3, 0xfb, 0x13, 0x85, 0x33, 
    0xf7, 0x2d, 0x72, 0x0c, 0x85, 0x34, 0x61, 0xd7, 0x33, 0xee, 0x96, 0x3c, 
    0x13, 0xa2, 0xe3, 0x17, 0xea, 0x65, 0x6b, 0xcd, 0x93, 0x16, 0xe0, 0xe3, 
    0x75, 0xe5, 0xad, 0x81, 0x2b, 0x1d, 0xda, 0x7a, 0x26, 0xe8, 0xff, 0xff, 
    0x04, 0x00, 0x00, 0x00, 0x20, 0x00, 0x00, 0x00, 0xd3, 0x8b, 0xff, 0xff, 
    0xe3, 0x13, 0x0b, 0x00, 0xcc, 0x1b, 0xe8, 0xff, 0x0f, 0x7c, 0xbd, 0xff, 
    0x5f, 0xfa, 0xfd, 0xff, 0x1d, 0xf6, 0xee, 0xff, 0xff, 0x16, 0x10, 0x00, 
    0xd8, 0xba, 0xf9, 0xff, 0x52, 0xe8, 0xff, 0xff, 0x04, 0x00, 0x00, 0x00, 
    0x80, 0x04, 0x00, 0x00, 0xff, 0xf1, 0xd1, 0x32, 0x11, 0xee, 0x20, 0xca, 
    0x5d, 0xc7, 0xf9, 0x13, 0x17, 0xf1, 0x36, 0x1b, 0xfd, 0xb6, 0xfb, 0xf4, 
    0xde, 0x2e, 0x1c, 0xd6, 0xbb, 0xee, 0xda, 0xf2, 0x6b, 0xe2, 0x12, 0x05, 
    0xb0, 0xbe, 0xf6, 0x02, 0x26, 0xd1, 0x11, 0xea, 0xc7, 0x27, 0xfa, 0x49, 
    0x08, 0xd2, 0x44, 0x05, 0xa2, 0xf6, 0x18, 0xd1, 0x58, 0xdf, 0x7f, 0x3c, 
    0xe9, 0x1c, 0x48, 0xf5, 0x08, 0x3a, 0x3a, 0x3d, 0x1e, 0x1d, 0x37, 0xdb, 
    0x59, 0xe1, 0x68, 0x53, 0x00, 0xb1, 0x31, 0xeb, 0x58, 0x14, 0x31, 0xe5, 
    0x3f, 0x01, 0xbd, 0x1a, 0xf7, 0xe7, 0x71, 0xce, 0xdd, 0xce, 0x0c, 0x22, 
    0xee, 0xbf, 0x66, 0x0b, 0x8b, 0x98, 0xf1, 0xc6, 0x53, 0x0d, 0x52, 0x2a, 
    0xde, 0x30, 0x06, 0x31, 0x64, 0xf0, 0x72, 0xdc, 0xca, 0x1f, 0xbf, 0x1d, 
    0x54, 0x2e, 0x51, 0xf9, 0x14, 0x22, 0xe4, 0xf2, 0xe6, 0x5b, 0x4e, 0x7f, 
    0xeb, 0x31, 0x1e, 0x0d, 0x1a, 0x33, 0x0b, 0x5e, 0xda, 0xf9, 0x2a, 0xde, 
    0x3e, 0xbf, 0x5b, 0x7a, 0xac, 0x7f, 0x0b, 0x4e, 0x1f, 0x44, 0x13, 0xe5, 
    0x52, 0x7b, 0xdd, 0xc6, 0xd3, 0x5a, 0x15, 0x3f, 0xee, 0x2c, 0x38, 0x58, 
    0xfb, 0xec, 0xa2, 0x58, 0xfa, 0xd2, 0x33, 0x46, 0x12, 0xdd, 0x9d, 0xb1, 
    0x15, 0x42, 0xc3, 0x10, 0xf0, 0x4f, 0xf4, 0xf0, 0xd1, 0xec, 0x30, 0x26, 
    0xca, 0xe7, 0x07, 0x1b, 0x39, 0xd7, 0x03, 0x1c, 0xf8, 0xb8, 0xc2, 0xd6, 
    0x3f, 0x4f, 0xb4, 0x05, 0x22, 0xfd, 0x01, 0xcb, 0x54, 0xec, 0x03, 0x14, 
    0xf5, 0xcf, 0xc8, 0xd3, 0x7f, 0xcf, 0xda, 0x30, 0xc9, 0xf5, 0x5d, 0x09, 
    0xf7, 0x5b, 0xe5, 0x2a, 0xbe, 0x0e, 0xb1, 0xda, 0xdc, 0x36, 0xd8, 0xee, 
    0x09, 0x40, 0xfb, 0xae, 0xc0, 0xcd, 0xcc, 0xcd, 0x99, 0xd3, 0x10, 0xf9, 
    0xee, 0xf5, 0xdf, 0x28, 0x01, 0x3a, 0x36, 0xe3, 0x29, 0x06, 0x40, 0xdb, 
    0xed, 0x59, 0xdb, 0xda, 0xed, 0xdb, 0xe0, 0xd1, 0x9b, 0xef, 0x09, 0xa0, 
    0x2b, 0xf0, 0x07, 0xe4, 0xf2, 0x37, 0xa6, 0xc9, 0x3a, 0x05, 0xf2, 0x4b, 
    0xb8, 0x25, 0x27, 0x19, 0xbe, 0x49, 0x3f, 0xfd, 0x03, 0xe0, 0xab, 0x12, 
    0x2d, 0x28, 0x1e, 0x27, 0x15, 0xe2, 0xb0, 0xd9, 0xe8, 0x24, 0x1c, 0x0f, 
    0xcd, 0x3f, 0x0a, 0x12, 0xec, 0x42, 0x20, 0x46, 0xd1, 0xfc, 0x15, 0x12, 
    0xcd, 0xf3, 0x2a, 0x04, 0xe9, 0x1c, 0x18, 0x4d, 0xe6, 0x29, 0x3a, 0xdc, 
    0xdf, 0x19, 0xf6, 0x26, 0x7f, 0xdf, 0x1b, 0xe4, 0x2f, 0x2c, 0x34, 0x44, 
    0x56, 0x15, 0x16, 0xd4, 0xd8, 0xb7, 0xec, 0xed, 0x49, 0x34, 0xb4, 0xcb, 
    0xb2, 0xf3, 0xe8, 0x0f, 0xe7, 0xf8, 0x10, 0xdb, 0x14, 0x1c, 0x14, 0x3d, 
    0xee, 0x22, 0xd6, 0xe5, 0x1a, 0x20, 0x0e, 0x6b, 0x02, 0xf6, 0xf1, 0x1c, 
    0x05, 0xf0, 0xf9, 0x6f, 0xea, 0xfc, 0x1a, 0xd1, 0x25, 0x1c, 0x2c, 0x7f, 
    0x03, 0x0e, 0xf1, 0xef, 0xf6, 0xe6, 0xff, 0x41, 0xef, 0xee, 0x11, 0xfc, 
    0xee, 0xfb, 0x16, 0x68, 0x23, 0xe1, 0xd6, 0x0a, 0x0e, 0x05, 0x34, 0x64, 
    0x02, 0xfc, 0xc5, 0xd6, 0x25, 0xf8, 0x20, 0x77, 0x01, 0x0b, 0x04, 0x0f, 
    0x2d, 0x0b, 0x50, 0x5e, 0x8a, 0x39, 0xf8, 0x2f, 0x26, 0x20, 0xc6, 0x33, 
    0xa9, 0x53, 0x00, 0x12, 0x30, 0x40, 0xe6, 0x51, 0xa5, 0x17, 0xdd, 0x04, 
    0x1f, 0xec, 0x02, 0xfc, 0x82, 0x46, 0x18, 0xea, 0x0e, 0xe1, 0x0e, 0x24, 
    0x81, 0xef, 0x17, 0x25, 0x0f, 0x0f, 0x19, 0x27, 0xa7, 0xfe, 0x02, 0xd0, 
    0xcd, 0xf5, 0xda, 0x1a, 0x37, 0x1d, 0x09, 0x1c, 0xc1, 0xd1, 0xd6, 0xdd, 
    0x39, 0xee, 0x20, 0xd1, 0x0a, 0x0d, 0xef, 0x0d, 0x0a, 0xef, 0x18, 0xcf, 
    0xbd, 0xd4, 0xdc, 0xd6, 0xcb, 0xf3, 0x2e, 0x1f, 0xfa, 0xe7, 0xf9, 0xde, 
    0xe6, 0x30, 0x0c, 0x0c, 0x27, 0xfc, 0xe2, 0x3f, 0xa1, 0x1f, 0x05, 0x20, 
    0x16, 0x38, 0xeb, 0x0e, 0x06, 0x3d, 0xe7, 0xce, 0x16, 0x2f, 0xd4, 0x11, 
    0xbb, 0x00, 0xd3, 0x09, 0x12, 0x18, 0x19, 0x2e, 0x81, 0x04, 0xd6, 0x0d, 
    0xe6, 0xff, 0xdc, 0xd9, 0x3c, 0x10, 0x1f, 0xed, 0xe2, 0x1c, 0xfc, 0xeb, 
    0x76, 0xe8, 0xeb, 0xd5, 0xf0, 0x0e, 0xdc, 0x25, 0x4e, 0x3e, 0xc8, 0xca, 
    0xe3, 0xe5, 0xe3, 0x19, 0xfb, 0x21, 0xf9, 0x2a, 0x30, 0x43, 0xb4, 0x45, 
    0x10, 0x4f, 0x1e, 0x37, 0x08, 0x41, 0x03, 0x16, 0xee, 0x46, 0x0b, 0x02, 
    0xee, 0x2f, 0xd4, 0x41, 0x39, 0xf2, 0x17, 0x00, 0xc8, 0xeb, 0xe2, 0x43, 
    0x3e, 0x3c, 0xc4, 0xcb, 0xd3, 0xd0, 0x1d, 0x2a, 0x29, 0xee, 0x15, 0xdf, 
    0x24, 0xed, 0xbb, 0xe0, 0x68, 0x1e, 0xb7, 0xfe, 0x0a, 0xcd, 0x11, 0x35, 
    0x7f, 0x08, 0x1b, 0xec, 0xdf, 0xbf, 0xb9, 0x41, 0x3a, 0x11, 0x0d, 0xc0, 
    0x26, 0x1a, 0x01, 0xed, 0xce, 0x31, 0x0f, 0x16, 0x10, 0x28, 0xef, 0xf6, 
    0xe3, 0x68, 0xda, 0xee, 0xe2, 0x0a, 0xd8, 0xe1, 0xc2, 0x52, 0x30, 0x3d, 
    0x1d, 0x4c, 0xb5, 0x25, 0x2a, 0x55, 0xc8, 0xce, 0xb9, 0xe2, 0x03, 0xf8, 
    0x26, 0x4c, 0xf5, 0xe5, 0xdd, 0x40, 0xfd, 0xe4, 0x14, 0x3b, 0x08, 0xce, 
    0x1b, 0x16, 0xfe, 0xe7, 0x30, 0x0d, 0xe7, 0xad, 0x27, 0xc2, 0xb2, 0x34, 
    0x7f, 0x05, 0xe8, 0x21, 0x17, 0x12, 0xce, 0x31, 0x47, 0x38, 0x26, 0xb0, 
    0xcd, 0x0c, 0x02, 0xd2, 0x81, 0x3f, 0x2f, 0x2e, 0x32, 0x52, 0xea, 0x2c, 
    0xb9, 0x3d, 0x22, 0x22, 0x37, 0x1e, 0xc0, 0x2c, 0xaf, 0x04, 0x0e, 0x28, 
    0x52, 0x1e, 0xa5, 0x1a, 0xca, 0x63, 0x2e, 0xf4, 0x1b, 0x2f, 0xd5, 0x0f, 
    0xa7, 0x1b, 0x1c, 0x3e, 0x0f, 0x02, 0xb0, 0xd5, 0xc0, 0x40, 0x44, 0x0e, 
    0x09, 0x4d, 0xf7, 0x1f, 0x3a, 0xa9, 0xb6, 0xb4, 0xd5, 0xd0, 0x00, 0xf6, 
    0x34, 0xa2, 0xb0, 0xf4, 0xb0, 0xe3, 0x05, 0x0c, 0x55, 0xda, 0xb0, 0xe5, 
    0xbe, 0xc3, 0x0c, 0x32, 0xf7, 0x0a, 0xf6, 0x2f, 0x43, 0xf5, 0x30, 0x4a, 
    0xf9, 0x4d, 0x3f, 0x45, 0x2e, 0x21, 0x25, 0x7f, 0x1a, 0x21, 0x21, 0x45, 
    0xee, 0x42, 0xd0, 0x40, 0xc7, 0x2f, 0x47, 0x31, 0x4b, 0x28, 0xef, 0x75, 
    0xdb, 0x13, 0x3c, 0xe8, 0x05, 0x4e, 0xee, 0x4d, 0xd7, 0x25, 0x36, 0xf9, 
    0x52, 0x2c, 0x1c, 0x57, 0x9c, 0x56, 0x12, 0x53, 0x25, 0x07, 0x2b, 0x5b, 
    0xe4, 0x3e, 0x33, 0x4f, 0xee, 0x50, 0x12, 0x10, 0xb4, 0x38, 0xea, 0x40, 
    0xe7, 0x5d, 0x07, 0x56, 0x19, 0xef, 0x01, 0x24, 0xcf, 0x01, 0xd4, 0xf1, 
    0xcf, 0x39, 0xe2, 0xed, 0xd1, 0xf0, 0xca, 0xa3, 0xf1, 0x00, 0xd9, 0xe1, 
    0xe3, 0xf1, 0xfe, 0xf1, 0xc0, 0x3a, 0x3f, 0x12, 0xf5, 0x1d, 0xff, 0xaa, 
    0xcc, 0x46, 0xfd, 0xfc, 0x16, 0x20, 0xb8, 0xab, 0xea, 0x2c, 0x28, 0x17, 
    0xdd, 0xe4, 0x0a, 0xe4, 0x81, 0x25, 0x36, 0x58, 0x07, 0xf2, 0x9f, 0xe5, 
    0x83, 0x5d, 0x3b, 0x57, 0xc7, 0x1f, 0xa6, 0xdd, 0x89, 0x15, 0xde, 0x5c, 
    0xee, 0x30, 0xe2, 0x10, 0x7a, 0x64, 0x1d, 0xd8, 0xda, 0xd5, 0x0d, 0x23, 
    0xdc, 0x51, 0xd1, 0x51, 0x11, 0xd0, 0x30, 0x61, 0x23, 0x06, 0x49, 0x3c, 
    0xbe, 0x24, 0xab, 0x0a, 0x73, 0x59, 0xba, 0xcf, 0xdd, 0xd2, 0xcd, 0xdc, 
    0x7d, 0x3b, 0xeb, 0xe1, 0xe6, 0xe4, 0xe8, 0xf5, 0x3d, 0xe8, 0xeb, 0xba, 
    0xe5, 0xc4, 0xdb, 0x36, 0x68, 0x4f, 0x1a, 0x12, 0x01, 0x37, 0xef, 0x4b, 
    0x7f, 0xd8, 0x57, 0xc6, 0xd9, 0xf8, 0xf6, 0xc6, 0x1b, 0x31, 0xcb, 0xd5, 
    0x2b, 0xf2, 0x03, 0x3b, 0xe8, 0x57, 0xe2, 0xdd, 0xc0, 0x23, 0x8c, 0x32, 
    0xdc, 0x57, 0xdf, 0x07, 0xe0, 0x06, 0xbf, 0x58, 0x39, 0x45, 0x11, 0x30, 
    0xf6, 0xf5, 0x8b, 0x24, 0xe5, 0x35, 0x42, 0x19, 0x02, 0x35, 0xd3, 0x4d, 
    0xcf, 0x10, 0x40, 0xe5, 0x08, 0x31, 0xc0, 0x3c, 0xca, 0x2b, 0x08, 0xe9, 
    0x14, 0x44, 0xa2, 0x10, 0x8c, 0x40, 0xfa, 0x33, 0xd8, 0x1c, 0x9b, 0x24, 
    0xc3, 0x7f, 0x09, 0xff, 0x20, 0x28, 0xb4, 0xf5, 0x98, 0x38, 0xf9, 0x34, 
    0x1c, 0x0d, 0xe3, 0x5e, 0xe8, 0x55, 0x3f, 0x04, 0x0e, 0x28, 0xb2, 0x17, 
    0xe5, 0x39, 0x36, 0x06, 0xfe, 0x3c, 0xc6, 0xe9, 0xde, 0x32, 0x3e, 0x0e, 
    0x1b, 0x30, 0xa6, 0x4a, 0xe4, 0x1b, 0x0e, 0x30, 0x16, 0x1a, 0xb3, 0xd3, 
    0xac, 0xfb, 0x0f, 0x3b, 0x01, 0x06, 0xba, 0x2b, 0x81, 0x18, 0xd6, 0xfb, 
    0x2a, 0x11, 0xb1, 0x2a, 0x5b, 0xdc, 0xf2, 0xd2, 0xd2, 0x1c, 0xee, 0x1f, 
    0x69, 0xf8, 0xd5, 0xda, 0xbd, 0xee, 0xd0, 0xf8, 0x3b, 0x2c, 0x1f, 0xed, 
    0xeb, 0xe5, 0xe9, 0x11, 0xde, 0xec, 0xff, 0xff, 0x04, 0x00, 0x00, 0x00, 
    0x40, 0x00, 0x00, 0x00, 0xcc, 0x7a, 0x02, 0x00, 0xf6, 0x3f, 0x01, 0x00, 
    0x54, 0x0c, 0x00, 0x00, 0x91, 0x6a, 0x02, 0x00, 0xdf, 0x5c, 0x01, 0x00, 
    0x10, 0x1c, 0x00, 0x00, 0x92, 0xc3, 0xff, 0xff, 0x95, 0x29, 0x00, 0x00, 
    0x0b, 0xa5, 0x00, 0x00, 0xd8, 0xde, 0xff, 0xff, 0x21, 0xc3, 0x01, 0x00, 
    0x84, 0x6a, 0xfd, 0xff, 0x96, 0x40, 0xfd, 0xff, 0x46, 0x7e, 0x00, 0x00, 
    0x87, 0x70, 0xf9, 0xff, 0x8a, 0x19, 0x00, 0x00, 0x2a, 0xed, 0xff, 0xff, 
    0x04, 0x00, 0x00, 0x00, 0x00, 0x12, 0x00, 0x00, 0x20, 0x11, 0xff, 0xfd, 
    0xe9, 0x04, 0x14, 0xdd, 0xdb, 0x14, 0x81, 0x15, 0x26, 0xc9, 0x18, 0xf5, 
    0x21, 0x12, 0x14, 0xfa, 0xef, 0xf9, 0xf6, 0xf6, 0x04, 0x02, 0x94, 0x1c, 
    0x22, 0xcc, 0xf3, 0xfc, 0x23, 0x03, 0xfa, 0xef, 0xec, 0xef, 0x04, 0xfd, 
    0x05, 0x13, 0xa9, 0x0c, 0x32, 0xdf, 0xf9, 0xe2, 0x1e, 0x23, 0xf1, 0xe9, 
    0x04, 0x14, 0x23, 0x2a, 0xf2, 0xfb, 0x23, 0x0f, 0xef, 0xd2, 0xf4, 0x22, 
    0x1d, 0x27, 0x07, 0x11, 0x09, 0x19, 0xf7, 0x19, 0xff, 0x28, 0x2a, 0x0c, 
    0xfd, 0xe3, 0x07, 0x02, 0x21, 0x06, 0xf5, 0xff, 0x22, 0x2c, 0xff, 0x18, 
    0x1e, 0x15, 0x17, 0x19, 0x0b, 0xde, 0x18, 0x10, 0x1c, 0x1e, 0xdc, 0xaf, 
    0xc7, 0xec, 0xe8, 0xd5, 0xd0, 0xc3, 0xb8, 0xfb, 0xfe, 0xea, 0xe9, 0xd4, 
    0x2e, 0x25, 0xd6, 0xaa, 0xe0, 0x0a, 0xde, 0xc2, 0xe6, 0xca, 0x9a, 0xda, 
    0xe8, 0xcc, 0xc2, 0xdd, 0x36, 0xfc, 0xb9, 0xce, 0xca, 0xf7, 0xb0, 0xe4, 
    0xf5, 0xcf, 0x95, 0xd2, 0xc3, 0xeb, 0xdf, 0xaa, 0x2d, 0xe9, 0xfd, 0xe0, 
    0xec, 0xe0, 0x11, 0xd5, 0xec, 0xd5, 0x9e, 0x1d, 0x0d, 0x1d, 0xf9, 0xd8, 
    0x22, 0xf0, 0x03, 0xd7, 0xe3, 0x1d, 0xdf, 0xec, 0xdf, 0xe4, 0xab, 0xea, 
    0x11, 0x08, 0x07, 0x13, 0x16, 0xf0, 0xde, 0xec, 0xe1, 0x17, 0xe2, 0xec, 
    0xfc, 0xf3, 0xb3, 0x10, 0xf1, 0x0a, 0xe6, 0x0d, 0x0d, 0x08, 0xe4, 0xd1, 
    0xdb, 0x0e, 0x14, 0xf2, 0x12, 0x16, 0xbb, 0x26, 0xf1, 0x0f, 0xfd, 0x05, 
    0x16, 0x00, 0xf1, 0xe6, 0xfb, 0xec, 0xfc, 0xdc, 0x0e, 0xde, 0x84, 0xf2, 
    0xfa, 0xdc, 0x06, 0xf2, 0x37, 0x2b, 0xeb, 0xe5, 0xe0, 0x0a, 0x0f, 0xf3, 
    0xdf, 0xf1, 0x81, 0xf1, 0x0a, 0x0a, 0x01, 0xe2, 0x20, 0x27, 0x24, 0xe8, 
    0x01, 0x2a, 0xf6, 0x19, 0x1d, 0x1c, 0x13, 0x27, 0x32, 0xf4, 0x1a, 0x17, 
    0x0c, 0x30, 0xfe, 0x13, 0x08, 0x0f, 0x18, 0x03, 0xf5, 0xff, 0x1f, 0xff, 
    0xf2, 0xd6, 0x21, 0x02, 0x1d, 0x14, 0x08, 0xe6, 0x15, 0xfd, 0x02, 0x05, 
    0x11, 0x1d, 0x26, 0x24, 0xf7, 0xea, 0xfa, 0x2a, 0x19, 0x02, 0x08, 0xdd, 
    0xd5, 0x17, 0xfe, 0xf6, 0xde, 0xda, 0x8a, 0x01, 0xe6, 0x0a, 0x00, 0xf3, 
    0x07, 0x1e, 0xf0, 0xe9, 0xe5, 0x1c, 0xfd, 0xe0, 0xd0, 0x09, 0xb4, 0xfb, 
    0xf6, 0xdc, 0x10, 0xf4, 0x0a, 0x0c, 0xe6, 0x09, 0xed, 0x0a, 0xdb, 0xdb, 
    0xe7, 0xe8, 0x81, 0xfb, 0x16, 0xe6, 0xef, 0x0e, 0xf2, 0x27, 0x1d, 0xdb, 
    0xed, 0x0a, 0xee, 0x0c, 0x07, 0xdf, 0x2b, 0x15, 0x03, 0x0d, 0xfa, 0x10, 
    0x03, 0x04, 0x19, 0x02, 0xe7, 0x0b, 0x14, 0x1b, 0xe1, 0xf8, 0x30, 0x14, 
    0x01, 0xfe, 0xfb, 0xef, 0x07, 0xef, 0xe3, 0xe0, 0xf5, 0x1d, 0x00, 0xfe, 
    0xf9, 0xe7, 0x15, 0x17, 0xf2, 0xd4, 0x03, 0xe4, 0x30, 0x1a, 0x23, 0xef, 
    0x10, 0xf2, 0xf5, 0x1a, 0xe1, 0x1d, 0xfc, 0xed, 0xf7, 0x0a, 0xff, 0x01, 
    0x1a, 0x11, 0x0e, 0x01, 0xdf, 0xe8, 0xfc, 0xea, 0x0e, 0x1e, 0x0f, 0xf4, 
    0x11, 0xe5, 0x04, 0xfb, 0x35, 0x1c, 0x08, 0xf3, 0xfc, 0x1a, 0x0d, 0xe8, 
    0xf2, 0xf8, 0x2e, 0x1a, 0xfd, 0xf4, 0xf8, 0x11, 0x28, 0x14, 0xf2, 0xb8, 
    0xf1, 0x0d, 0xe5, 0xfb, 0x09, 0xf3, 0xae, 0x14, 0xf7, 0x31, 0xfc, 0xdd, 
    0x06, 0x0f, 0x1b, 0xdd, 0xf6, 0x1f, 0xee, 0x04, 0xed, 0xd0, 0xaa, 0xf8, 
    0xe1, 0x04, 0xe6, 0xf4, 0x33, 0x0b, 0xd1, 0xe1, 0xe8, 0xe5, 0x08, 0xe1, 
    0xda, 0xca, 0x9d, 0xe4, 0x10, 0xe6, 0x0a, 0xef, 0xf6, 0x0e, 0x1b, 0xb6, 
    0x05, 0x20, 0x11, 0xe5, 0xcf, 0xda, 0x81, 0x0b, 0xe5, 0xf2, 0x06, 0xda, 
    0x23, 0x04, 0x00, 0xe3, 0xd4, 0xe2, 0xdb, 0xe3, 0xfa, 0xd3, 0xaa, 0x0a, 
    0xe9, 0xf1, 0xf2, 0xe9, 0xf7, 0x17, 0xfb, 0xe2, 0x17, 0xf4, 0x10, 0x1e, 
    0xe6, 0x16, 0x8c, 0xfa, 0xf4, 0xd9, 0xe5, 0x09, 0x1e, 0x2b, 0x2b, 0xcd, 
    0x18, 0x2f, 0x0f, 0xe9, 0x18, 0xf7, 0x15, 0x29, 0x0b, 0xf7, 0x29, 0x2c, 
    0x23, 0x10, 0x01, 0x20, 0x1b, 0xf1, 0x16, 0x24, 0xf0, 0xff, 0x1e, 0x2c, 
    0x28, 0xf6, 0x07, 0x0d, 0x17, 0x3a, 0xec, 0x1f, 0x0c, 0x15, 0x06, 0x0b, 
    0xfa, 0x18, 0x40, 0x21, 0x02, 0xf5, 0x20, 0x13, 0xe9, 0xfc, 0x16, 0x35, 
    0x18, 0xf1, 0x0f, 0x14, 0x02, 0x1c, 0x64, 0x1d, 0x01, 0x05, 0x05, 0x0d, 
    0xf1, 0x03, 0x23, 0x1e, 0x2a, 0x06, 0x06, 0x1e, 0x09, 0xf9, 0x7f, 0xf4, 
    0xf7, 0x12, 0x0e, 0x01, 0x0f, 0x05, 0x06, 0x0e, 0x18, 0x23, 0x1e, 0xfa, 
    0x1f, 0x1a, 0x7b, 0xf7, 0xfe, 0x26, 0x15, 0x0d, 0xfd, 0x06, 0xff, 0x0d, 
    0xf4, 0x02, 0xf0, 0x16, 0xfb, 0x11, 0xe5, 0xfd, 0xfd, 0x12, 0xe3, 0xf6, 
    0x09, 0x14, 0xfa, 0x21, 0xea, 0x13, 0x1b, 0x17, 0x01, 0x1d, 0xd6, 0x09, 
    0x18, 0x06, 0x0d, 0x08, 0xd8, 0x15, 0x01, 0xf7, 0x0d, 0x03, 0x15, 0xfc, 
    0x0d, 0x0d, 0xca, 0x0e, 0xf0, 0x09, 0x09, 0x0b, 0x0b, 0xfe, 0xf6, 0x04, 
    0x08, 0x0d, 0x0e, 0x09, 0xee, 0x11, 0xca, 0xfc, 0xf3, 0xf8, 0xf4, 0xe1, 
    0xfd, 0xf5, 0xf4, 0xf7, 0xed, 0x00, 0x05, 0x13, 0x11, 0x0e, 0xec, 0x0d, 
    0xd8, 0xf5, 0xea, 0x0c, 0x08, 0xef, 0x11, 0x0b, 0x12, 0x17, 0xe3, 0xf8, 
    0x1e, 0xea, 0xc4, 0x03, 0xe5, 0x28, 0xdf, 0xec, 0x01, 0xc9, 0x88, 0xb4, 
    0xcd, 0xc3, 0xd9, 0xc3, 0xb4, 0xe2, 0x1d, 0xa8, 0x93, 0x29, 0xa2, 0xa2, 
    0x26, 0xe4, 0xdc, 0x48, 0x1e, 0xeb, 0xdf, 0xf1, 0xf8, 0x17, 0x7d, 0xb7, 
    0xd4, 0x42, 0xbd, 0x0c, 0x00, 0xb0, 0xec, 0x13, 0x01, 0xf4, 0x05, 0x00, 
    0xd4, 0xfa, 0x7f, 0xb2, 0xcd, 0x4d, 0xeb, 0xcb, 0x18, 0x25, 0xfc, 0x1f, 
    0x2f, 0xd4, 0xd1, 0xda, 0xdc, 0x0e, 0xf5, 0xf8, 0x3f, 0x15, 0x23, 0xf3, 
    0x44, 0x28, 0xfd, 0x67, 0x31, 0xdd, 0x1f, 0xd4, 0xbc, 0x1d, 0x27, 0x43, 
    0x3d, 0xf3, 0x2e, 0x47, 0x04, 0x37, 0x2a, 0xf7, 0x13, 0x0a, 0xef, 0x0d, 
    0xf5, 0xf8, 0x0e, 0x1d, 0x44, 0xfa, 0xf0, 0x24, 0xd1, 0xfe, 0xef, 0x16, 
    0x01, 0xb9, 0x2d, 0x1f, 0xdd, 0x0e, 0x3e, 0xea, 0x49, 0x0a, 0xf6, 0xfd, 
    0xe2, 0xf1, 0x19, 0x0e, 0x2d, 0xc7, 0x25, 0xee, 0xef, 0x3b, 0xcb, 0xfd, 
    0x36, 0xd0, 0xe9, 0x32, 0xf3, 0xf8, 0x19, 0xf3, 0x0e, 0x0c, 0xf9, 0xdf, 
    0xde, 0xdb, 0xcf, 0xf6, 0x05, 0x18, 0x27, 0x00, 0xfe, 0x22, 0x0c, 0x0e, 
    0x06, 0x1e, 0x0b, 0x2f, 0x2c, 0xfa, 0x43, 0x01, 0x17, 0x11, 0xfb, 0xfc, 
    0x16, 0xfb, 0x1d, 0x3a, 0x1d, 0x16, 0x2a, 0x15, 0x31, 0x14, 0x7f, 0x15, 
    0x08, 0xf2, 0x07, 0x05, 0x17, 0xf5, 0xf4, 0xf9, 0x23, 0xf8, 0x19, 0xff, 
    0x06, 0x0a, 0x57, 0x16, 0x0d, 0xf3, 0x0d, 0x29, 0xf3, 0x0c, 0xe7, 0x22, 
    0xf9, 0x1e, 0xff, 0x01, 0x1f, 0x05, 0xff, 0xe7, 0xdb, 0x1f, 0xe7, 0xe4, 
    0xef, 0x09, 0xff, 0x15, 0xf0, 0x00, 0xf9, 0x0c, 0x0d, 0x14, 0xd1, 0xf9, 
    0xec, 0x00, 0xfb, 0xf6, 0xfe, 0x00, 0x03, 0x0f, 0xea, 0xf5, 0xf7, 0x00, 
    0x0b, 0x17, 0xe8, 0x0f, 0x00, 0x0d, 0xe0, 0x0c, 0xed, 0xff, 0xf1, 0xf7, 
    0xda, 0x13, 0xef, 0x11, 0xf1, 0xf0, 0xf2, 0xf9, 0xcd, 0x29, 0xf2, 0xe4, 
    0x10, 0x0f, 0xde, 0x00, 0xf9, 0x08, 0xe9, 0xff, 0x18, 0x0d, 0xe0, 0x10, 
    0xf3, 0x27, 0xfe, 0x06, 0x0a, 0xe2, 0xe0, 0xec, 0xdf, 0x19, 0x05, 0xfb, 
    0x17, 0xf7, 0xd7, 0xf7, 0xcc, 0xfb, 0xd9, 0xf4, 0xf4, 0x20, 0x0d, 0x3e, 
    0x10, 0x15, 0x0b, 0xf8, 0x13, 0x0a, 0x58, 0x13, 0x23, 0xfb, 0x29, 0x0e, 
    0x21, 0x14, 0x1b, 0x29, 0x17, 0x26, 0x05, 0x28, 0x02, 0x13, 0x61, 0xf6, 
    0x0c, 0xfe, 0x0f, 0x21, 0xe8, 0x21, 0xfe, 0xe9, 0x14, 0xf8, 0x2c, 0x0f, 
    0x2d, 0x13, 0x7f, 0x18, 0x25, 0x2d, 0x00, 0x0a, 0xfa, 0x0c, 0x19, 0x26, 
    0x1b, 0x1f, 0xe2, 0xea, 0x0c, 0xec, 0xbe, 0xf5, 0x1d, 0x09, 0x17, 0xf4, 
    0x04, 0xea, 0x1a, 0x07, 0x02, 0xe8, 0xf8, 0xfb, 0x05, 0xfb, 0xbe, 0x1f, 
    0x1e, 0x02, 0x1d, 0x0c, 0xe4, 0xf0, 0x16, 0x15, 0xef, 0x19, 0xf8, 0xfb, 
    0xfc, 0xff, 0xb8, 0x09, 0xf8, 0x10, 0x12, 0x12, 0x20, 0xe6, 0xf2, 0x1c, 
    0xfc, 0x17, 0x03, 0x10, 0x18, 0xef, 0xe5, 0xeb, 0xe0, 0xfc, 0xe7, 0x02, 
    0x03, 0xf6, 0xe3, 0xf6, 0x0a, 0xf7, 0x0a, 0x1a, 0xfa, 0xf4, 0xc5, 0xfa, 
    0xfc, 0x06, 0x12, 0x1a, 0xf1, 0xf2, 0x0e, 0xec, 0x07, 0xf3, 0xec, 0xec, 
    0x27, 0xff, 0xd6, 0xfb, 0x07, 0x16, 0x12, 0xe7, 0x2e, 0x1b, 0xda, 0xdf, 
    0xe1, 0xf6, 0xf5, 0xf5, 0xde, 0xf5, 0x84, 0xed, 0x01, 0x1a, 0xd9, 0xde, 
    0x45, 0x0f, 0xeb, 0xdc, 0xf7, 0x00, 0xda, 0xd4, 0xf8, 0xfd, 0x85, 0xe7, 
    0xe1, 0x08, 0xdd, 0xc5, 0x1c, 0x24, 0xef, 0x1a, 0xe8, 0xf8, 0xc8, 0xf6, 
    0xec, 0xee, 0x81, 0xfe, 0xd7, 0x23, 0xec, 0xf1, 0x13, 0x1a, 0xcf, 0xcb, 
    0xea, 0x17, 0xd5, 0x02, 0x09, 0xed, 0x96, 0x0d, 0xe6, 0xf1, 0x06, 0xe8, 
    0x1b, 0x1a, 0xcc, 0xed, 0xfc, 0x17, 0xd1, 0xf7, 0x14, 0xe5, 0xa6, 0x0b, 
    0xbd, 0x0d, 0xdf, 0xe6, 0x3e, 0x16, 0x07, 0x05, 0xeb, 0xf8, 0xec, 0xd9, 
    0x16, 0xf7, 0xc9, 0x00, 0xf9, 0xf1, 0xfe, 0xfe, 0x55, 0x20, 0x19, 0xc9, 
    0xe3, 0x2e, 0x12, 0x0b, 0x19, 0xe6, 0xa6, 0x01, 0xf3, 0xfc, 0x0e, 0x09, 
    0x32, 0x2d, 0xff, 0xe9, 0x01, 0x2a, 0xe5, 0xf9, 0x01, 0x0a, 0xd0, 0x04, 
    0x0a, 0xf7, 0x1f, 0xe8, 0x46, 0x27, 0x0c, 0xd5, 0x10, 0x4b, 0xf0, 0xe3, 
    0x00, 0x18, 0xae, 0x11, 0xe8, 0xdf, 0x08, 0xec, 0xe3, 0x08, 0xf6, 0x15, 
    0x2a, 0xfa, 0xf3, 0x0d, 0x12, 0xf1, 0x7f, 0x17, 0xe9, 0x10, 0x00, 0x0a, 
    0x07, 0x0a, 0x12, 0x12, 0xfe, 0xfc, 0x19, 0x05, 0x38, 0xfb, 0x6b, 0xff, 
    0x1b, 0xf8, 0x12, 0x22, 0xe3, 0x1b, 0x0c, 0x01, 0x12, 0x01, 0x08, 0xfb, 
    0x00, 0x0a, 0x70, 0x27, 0xfa, 0xf7, 0x09, 0x20, 0xe6, 0x1d, 0xf6, 0x1b, 
    0xfc, 0xf4, 0xe1, 0xeb, 0xf3, 0xf7, 0xde, 0xfa, 0xe1, 0xf5, 0xfa, 0xff, 
    0x16, 0xe1, 0x12, 0x26, 0x08, 0x20, 0x17, 0x06, 0x21, 0xe6, 0xdf, 0x1b, 
    0x0a, 0xee, 0xf3, 0x0a, 0xdc, 0xe0, 0x0b, 0xe7, 0x12, 0x1d, 0xdf, 0x0c, 
    0x29, 0xf3, 0xc3, 0x16, 0xf5, 0x0c, 0xe2, 0xed, 0x00, 0x0e, 0x10, 0x06, 
    0x17, 0x0c, 0xdc, 0x1e, 0x29, 0x07, 0xd3, 0xed, 0xef, 0xf8, 0x02, 0xf7, 
    0xf9, 0xe8, 0xf4, 0x1c, 0x07, 0xf8, 0xf4, 0xea, 0x0b, 0xfc, 0xeb, 0xf6, 
    0xea, 0x05, 0x03, 0xe3, 0x0f, 0x12, 0xfc, 0xe3, 0xf4, 0x11, 0xfc, 0x08, 
    0x01, 0xe3, 0xb8, 0x0c, 0xdd, 0x18, 0xfe, 0x03, 0x11, 0x1b, 0x02, 0x15, 
    0xf7, 0x00, 0x29, 0x0d, 0x19, 0xf3, 0xb2, 0x2e, 0x3b, 0xa3, 0x1f, 0xf9, 
    0xe5, 0x06, 0x10, 0xfd, 0x07, 0x2a, 0x19, 0x1b, 0xf0, 0xf1, 0xb2, 0xfd, 
    0x0b, 0xc7, 0x13, 0x14, 0x07, 0x12, 0x26, 0x00, 0x1b, 0x02, 0x01, 0xec, 
    0xf8, 0x29, 0x9d, 0x30, 0x2f, 0xce, 0x24, 0x21, 0xe6, 0x00, 0x25, 0xe1, 
    0x26, 0x15, 0x1b, 0x16, 0x15, 0x16, 0x3c, 0x1a, 0xe3, 0xd1, 0x16, 0x13, 
    0xfc, 0x18, 0x18, 0x0f, 0x2d, 0x1f, 0x1d, 0x14, 0xfb, 0x13, 0x33, 0xfb, 
    0x08, 0xb7, 0x2a, 0x23, 0xf3, 0x23, 0x08, 0xf1, 0x15, 0x16, 0x38, 0x0d, 
    0xff, 0x0a, 0x48, 0x02, 0x18, 0xb5, 0xfd, 0x27, 0xa2, 0xa9, 0xf3, 0xbb, 
    0x02, 0xe6, 0xd6, 0xe8, 0x02, 0xf6, 0xb5, 0xbe, 0xee, 0xa4, 0xcb, 0xe0, 
    0x8c, 0xac, 0xd7, 0xbd, 0xe9, 0xe1, 0x04, 0xfe, 0x05, 0xd7, 0xb0, 0xd0, 
    0x15, 0xbe, 0xd6, 0xe6, 0x81, 0x92, 0xef, 0xe4, 0xfe, 0xe5, 0xe0, 0xff, 
    0x0d, 0xd8, 0xad, 0xbb, 0xf0, 0xc5, 0xb4, 0x0c, 0xe7, 0xfc, 0xf2, 0x3e, 
    0x0c, 0xfa, 0x21, 0x1a, 0x06, 0xfe, 0x7c, 0x27, 0x03, 0x20, 0x27, 0x18, 
    0x0d, 0xfb, 0x1a, 0x34, 0x2e, 0xed, 0x24, 0xf7, 0x0b, 0x2f, 0x7f, 0x10, 
    0xff, 0x03, 0xfe, 0x20, 0x19, 0x24, 0x08, 0xfb, 0x20, 0xeb, 0x01, 0x05, 
    0x1e, 0x13, 0x58, 0x0b, 0xfe, 0xfd, 0x09, 0x2a, 0xe5, 0x13, 0x12, 0x08, 
    0x00, 0x05, 0xea, 0x1d, 0x1e, 0xfb, 0xc0, 0x10, 0x06, 0x07, 0x04, 0xef, 
    0xe8, 0x19, 0xe5, 0x1a, 0xeb, 0x11, 0xf8, 0xfb, 0xee, 0x07, 0xe4, 0x01, 
    0x14, 0x1d, 0x03, 0x03, 0xf2, 0x17, 0x06, 0xf9, 0x1a, 0x1d, 0x1a, 0xec, 
    0xed, 0xe6, 0xc1, 0x10, 0x17, 0x01, 0x0e, 0x07, 0xe4, 0xf3, 0x04, 0x0a, 
    0xf6, 0x1a, 0x05, 0x19, 0x10, 0x03, 0xd6, 0xf8, 0xe2, 0x2b, 0x05, 0xe4, 
    0x16, 0x18, 0xe0, 0x08, 0x18, 0xec, 0x06, 0xfc, 0x0b, 0x17, 0xbd, 0xe3, 
    0xe1, 0x20, 0x00, 0x0a, 0xf9, 0xe3, 0xe8, 0x08, 0x10, 0x1a, 0x02, 0x04, 
    0xfd, 0x0c, 0xed, 0xf9, 0xdb, 0x23, 0xfe, 0x17, 0x05, 0x1e, 0x0d, 0xcf, 
    0xe5, 0x1b, 0xdc, 0x03, 0xf1, 0xf1, 0x81, 0x08, 0x0d, 0xef, 0x15, 0xd0, 
    0xf8, 0x07, 0xd0, 0xcf, 0xe6, 0x0c, 0xef, 0xc5, 0x09, 0x08, 0x93, 0x0c, 
    0xeb, 0xb4, 0x16, 0xd1, 0x30, 0xf3, 0xe5, 0xfb, 0xe3, 0x15, 0xdc, 0x03, 
    0xf7, 0xef, 0x92, 0x0d, 0x01, 0xd2, 0xfc, 0xfa, 0x20, 0x26, 0xf2, 0x0b, 
    0xe7, 0x28, 0x2c, 0xf5, 0x1b, 0x25, 0x4a, 0x08, 0x0b, 0xc7, 0xf2, 0x0b, 
    0x1a, 0x20, 0xfa, 0x0f, 0x28, 0x2c, 0x0f, 0x07, 0x0a, 0xe8, 0x3e, 0xf2, 
    0x0d, 0xf7, 0xe3, 0x0c, 0x2e, 0x2d, 0xfe, 0xe1, 0x0a, 0x06, 0x20, 0x15, 
    0x06, 0xff, 0x5d, 0x02, 0xdf, 0x07, 0xef, 0xda, 0x16, 0x18, 0xd0, 0xb6, 
    0xe3, 0x20, 0xd6, 0xf2, 0xf2, 0xf1, 0xd8, 0xdb, 0xdf, 0xd4, 0xd6, 0xea, 
    0x4a, 0x05, 0xf1, 0x9d, 0xe8, 0x2b, 0xe1, 0xbc, 0x05, 0xce, 0xd0, 0xef, 
    0xd8, 0xbd, 0xd8, 0xd4, 0x27, 0x2b, 0xda, 0xd2, 0xba, 0x09, 0xd9, 0xd0, 
    0xed, 0xcc, 0xc4, 0x04, 0xdd, 0xe6, 0xf4, 0xc7, 0x21, 0x05, 0x28, 0x29, 
    0x29, 0x24, 0xf3, 0x2f, 0x0f, 0x27, 0x7f, 0x26, 0x1b, 0xf4, 0x1d, 0x0d, 
    0xeb, 0xf9, 0xfc, 0x41, 0x20, 0x1f, 0x0a, 0x25, 0x2d, 0x28, 0x66, 0x19, 
    0x0c, 0x13, 0x1c, 0x1a, 0xf5, 0x1c, 0x2a, 0xe9, 0x1a, 0xf8, 0x25, 0x32, 
    0x0d, 0x18, 0x6f, 0x1d, 0x13, 0x10, 0x19, 0x2a, 0xe8, 0x0f, 0xe2, 0x1d, 
    0x01, 0xf2, 0x12, 0xf0, 0xff, 0x1e, 0xb2, 0xfd, 0xfa, 0x27, 0xf8, 0xf8, 
    0xe9, 0x0e, 0xef, 0x30, 0xe6, 0x06, 0xeb, 0x1d, 0x1f, 0xf2, 0xba, 0x05, 
    0xf2, 0x1e, 0xfb, 0xed, 0xee, 0x09, 0x00, 0x0f, 0x14, 0x23, 0xfd, 0xe9, 
    0x0b, 0xf5, 0xe7, 0xeb, 0xde, 0x12, 0x0d, 0x03, 0x1f, 0x0a, 0xf4, 0x0a, 
    0xe3, 0x01, 0x01, 0x03, 0xea, 0xe6, 0xdb, 0xf2, 0x09, 0x2c, 0xff, 0x02, 
    0xfc, 0xed, 0x11, 0xf9, 0x13, 0x21, 0xfc, 0x0a, 0x06, 0xfb, 0xd4, 0xe9, 
    0xed, 0x2e, 0xe1, 0x04, 0x13, 0x02, 0xee, 0x03, 0xdd, 0x1a, 0xfe, 0x01, 
    0xfd, 0x0d, 0xbd, 0x07, 0x02, 0x17, 0xe4, 0xf9, 0x07, 0x0d, 0xfb, 0x32, 
    0xfa, 0x0a, 0x21, 0x18, 0x13, 0x27, 0x7b, 0xec, 0xde, 0x35, 0xef, 0xf9, 
    0x2b, 0x1b, 0x1e, 0x32, 0x1b, 0x17, 0x36, 0x14, 0x09, 0x16, 0x7f, 0x27, 
    0x15, 0x15, 0x27, 0x17, 0xf6, 0x0e, 0xf2, 0x24, 0xe8, 0x0a, 0x1d, 0xff, 
    0xfe, 0x08, 0x6e, 0xe8, 0xdd, 0x3a, 0x20, 0xfe, 0xf7, 0x07, 0xdd, 0x16, 
    0xd7, 0x12, 0xdf, 0xe5, 0x17, 0xeb, 0xf9, 0xe8, 0xd5, 0x1d, 0xf4, 0x03, 
    0x2d, 0x18, 0x07, 0x32, 0xe2, 0xfd, 0x01, 0x0c, 0x1a, 0x0a, 0xff, 0x14, 
    0xd5, 0x2e, 0x14, 0xdb, 0x18, 0x03, 0xd6, 0xf6, 0x01, 0x1c, 0xed, 0x06, 
    0x00, 0x12, 0x1a, 0xe6, 0xe2, 0xf7, 0xf3, 0xda, 0xf9, 0x18, 0xe2, 0x04, 
    0xe8, 0xea, 0x03, 0x10, 0x03, 0xe2, 0x10, 0xed, 0xe3, 0x0f, 0x0c, 0x02, 
    0x21, 0xea, 0xe9, 0x05, 0xdf, 0x10, 0xea, 0xe5, 0xea, 0x08, 0x10, 0xf7, 
    0xf6, 0x23, 0xda, 0xe6, 0xfb, 0xf0, 0xfb, 0xe2, 0xf8, 0x13, 0xf3, 0x07, 
    0x0c, 0x06, 0xe1, 0xfc, 0xfb, 0x25, 0xfc, 0xe9, 0x13, 0xff, 0x29, 0x16, 
    0x12, 0xfc, 0x1c, 0x04, 0x26, 0x2d, 0x5a, 0x04, 0x02, 0x1e, 0x2c, 0x05, 
    0xf8, 0x03, 0x1d, 0x0c, 0x04, 0xf3, 0x05, 0x2d, 0x16, 0x30, 0x7f, 0x2b, 
    0x10, 0x02, 0x23, 0x26, 0x19, 0x02, 0x14, 0xf3, 0x2a, 0x22, 0x20, 0x0c, 
    0xfb, 0x0e, 0x57, 0x11, 0xf7, 0xfa, 0xf0, 0x01, 0xed, 0x16, 0x12, 0xfc, 
    0xe4, 0x16, 0x17, 0x23, 0x2c, 0x15, 0xcd, 0xe5, 0x0f, 0xfb, 0xe2, 0x0c, 
    0xe3, 0xf9, 0x18, 0x1e, 0xf6, 0x21, 0x00, 0xf2, 0x02, 0x25, 0xc0, 0x0c, 
    0xe0, 0xf3, 0xec, 0x00, 0x06, 0xf1, 0x14, 0x0f, 0x20, 0x04, 0xe1, 0x07, 
    0x18, 0x07, 0xbf, 0x13, 0x17, 0x07, 0x02, 0xf5, 0x0d, 0x0f, 0xe5, 0xf7, 
    0xf3, 0x13, 0xee, 0x02, 0x18, 0x0f, 0xda, 0xe4, 0xed, 0x33, 0x07, 0xf9, 
    0x08, 0xea, 0x10, 0x00, 0x14, 0xf7, 0x04, 0xf5, 0x0b, 0xfc, 0xcf, 0x11, 
    0xd9, 0x0a, 0xe2, 0xe7, 0x18, 0x10, 0x0a, 0x0f, 0xfc, 0x08, 0x18, 0x0a, 
    0xf2, 0xf7, 0xea, 0xf7, 0xfa, 0x2b, 0xe8, 0xe7, 0x1c, 0x08, 0xf5, 0xda, 
    0xf4, 0xf8, 0x12, 0xe7, 0xdd, 0xfb, 0x81, 0xff, 0xfd, 0xf2, 0xee, 0xe0, 
    0x0c, 0x0f, 0xe5, 0xd0, 0xfe, 0xf4, 0xe6, 0x08, 0xe0, 0xd8, 0xb1, 0x0a, 
    0xd9, 0xf8, 0xe8, 0x04, 0x24, 0x10, 0xe1, 0x18, 0xfd, 0xe0, 0x0d, 0xd6, 
    0xf5, 0xf5, 0x8e, 0xf6, 0xea, 0xe1, 0xff, 0xe8, 0x15, 0xea, 0xe2, 0xe7, 
    0xeb, 0x01, 0x0f, 0xff, 0xe2, 0x01, 0x25, 0x16, 0x0d, 0xd7, 0x15, 0x17, 
    0xf1, 0x00, 0x0c, 0xf4, 0x09, 0x0a, 0x0f, 0xe9, 0x09, 0xf2, 0x18, 0x0f, 
    0xde, 0xf9, 0x12, 0x0e, 0xf8, 0x03, 0x1d, 0x0a, 0x15, 0xfe, 0x14, 0xf7, 
    0xdf, 0xe2, 0x19, 0x14, 0xfa, 0xf0, 0x1c, 0xe0, 0x2d, 0x26, 0xe7, 0xf7, 
    0xe2, 0x1d, 0xf0, 0xe9, 0xfe, 0x16, 0x17, 0x1f, 0x01, 0xe5, 0x1d, 0x07, 
    0x11, 0x06, 0x1e, 0xe2, 0x04, 0x02, 0xe6, 0xf4, 0xde, 0x15, 0x1a, 0xf8, 
    0x0a, 0xe7, 0xf0, 0x09, 0x07, 0x29, 0xef, 0xe7, 0xfd, 0x15, 0xf6, 0x10, 
    0x0b, 0x10, 0x10, 0x08, 0x18, 0xd3, 0xfe, 0x0b, 0xfb, 0x16, 0xff, 0x32, 
    0x26, 0xfb, 0x1e, 0x23, 0x26, 0x1a, 0x7f, 0x0b, 0x18, 0xfe, 0x0c, 0x29, 
    0x05, 0x10, 0x06, 0x1f, 0x1e, 0x13, 0x10, 0x28, 0x04, 0x04, 0x7a, 0xf5, 
    0x13, 0xf2, 0x0e, 0x18, 0xf4, 0x17, 0x1a, 0x21, 0x1c, 0x0a, 0x12, 0xfc, 
    0x29, 0x21, 0x72, 0x24, 0xf7, 0x1a, 0x01, 0x17, 0xfc, 0xec, 0x10, 0x2b, 
    0xf2, 0xfb, 0x07, 0x12, 0x16, 0x00, 0xc7, 0xe9, 0x11, 0xf3, 0xed, 0xf0, 
    0x0a, 0xfd, 0x1a, 0x12, 0xe6, 0xf4, 0x17, 0xf0, 0x04, 0x1b, 0xdb, 0xfe, 
    0xef, 0x23, 0xfc, 0x18, 0x11, 0x0c, 0x15, 0x03, 0x09, 0x0b, 0x16, 0x19, 
    0x06, 0xf3, 0xd6, 0xec, 0xf6, 0x06, 0x18, 0xf8, 0x05, 0x07, 0xf6, 0x11, 
    0x11, 0x0f, 0xfa, 0x01, 0x06, 0x15, 0x03, 0x0a, 0xde, 0x27, 0xea, 0x15, 
    0xef, 0x18, 0xee, 0x05, 0xeb, 0xf6, 0xfa, 0xef, 0x1d, 0xea, 0x03, 0xf8, 
    0xee, 0x06, 0x09, 0xf0, 0xe9, 0x10, 0xef, 0x1b, 0xee, 0x09, 0xe6, 0xff, 
    0xf9, 0x0f, 0xfc, 0xe8, 0xf4, 0xfe, 0x18, 0xe8, 0xe9, 0xaf, 0xb1, 0x9e, 
    0xa8, 0xb3, 0xd2, 0xf1, 0xf1, 0xd1, 0x5c, 0x86, 0x96, 0x36, 0x98, 0x91, 
    0xec, 0xbe, 0xad, 0x81, 0x99, 0xd4, 0xa1, 0xc7, 0xe0, 0xbc, 0x37, 0x9a, 
    0x9c, 0x2f, 0xbf, 0xbd, 0xc2, 0xb4, 0xa0, 0x19, 0x9f, 0xbe, 0xd5, 0xf2, 
    0xe2, 0xe1, 0x67, 0x88, 0x9d, 0x20, 0x85, 0x98, 0x1b, 0xee, 0xfd, 0x45, 
    0x35, 0x05, 0xfa, 0x06, 0x0a, 0x2e, 0x1f, 0x1d, 0x47, 0x10, 0x35, 0x33, 
    0x2c, 0x0f, 0x2b, 0x15, 0x37, 0x01, 0x16, 0x02, 0xf6, 0x21, 0x40, 0x24, 
    0x50, 0x38, 0x3b, 0x42, 0x33, 0x07, 0x1d, 0x07, 0x23, 0xff, 0x23, 0xfc, 
    0xd8, 0x07, 0x3b, 0x2c, 0x35, 0x38, 0x39, 0x16, 0xd4, 0xf4, 0x1a, 0x00, 
    0x1e, 0xc0, 0x11, 0x06, 0x07, 0xe2, 0x1c, 0x23, 0x00, 0xfc, 0x28, 0x14, 
    0xe7, 0xd5, 0x25, 0x2b, 0x27, 0xd9, 0xee, 0xee, 0xd2, 0xe5, 0x0e, 0xff, 
    0x2e, 0xdd, 0x16, 0xfb, 0xc8, 0xe2, 0x0d, 0xff, 0x17, 0xdd, 0x10, 0x14, 
    0xdf, 0x15, 0x04, 0x22, 0x23, 0xc8, 0x02, 0x0f, 0x1b, 0x03, 0xef, 0xce, 
    0xf8, 0x11, 0xff, 0xe3, 0x00, 0xef, 0xbc, 0x05, 0x02, 0x0a, 0x03, 0x05, 
    0x1e, 0x24, 0xe0, 0xfc, 0xfb, 0xff, 0xe7, 0xfb, 0x05, 0xf1, 0xa1, 0xdf, 
    0xde, 0x18, 0x0d, 0xe7, 0x21, 0xfb, 0xf4, 0xfe, 0xd2, 0x07, 0xf8, 0xe4, 
    0xe6, 0xe6, 0x81, 0xe5, 0xf4, 0xf1, 0xf5, 0xda, 0x1d, 0x06, 0x09, 0xe4, 
    0x00, 0xf9, 0x18, 0x12, 0xde, 0xdb, 0xaa, 0x0b, 0xf3, 0xff, 0x06, 0x08, 
    0x2d, 0x2d, 0xf9, 0xd5, 0xd1, 0xf7, 0xf4, 0xe3, 0xe9, 0x03, 0xba, 0xfe, 
    0xea, 0xe8, 0xf2, 0xf3, 0x1d, 0x0a, 0xe8, 0xf0, 0xfe, 0x0c, 0xda, 0xfd, 
    0xf3, 0xf3, 0xc3, 0xec, 0xe4, 0x12, 0xe1, 0xf0, 0x20, 0x0d, 0xfa, 0x06, 
    0xf3, 0x13, 0xff, 0x18, 0xfd, 0xf6, 0xda, 0x1c, 0x13, 0xe1, 0x04, 0xf9, 
    0x1b, 0x12, 0xde, 0xde, 0x0b, 0x04, 0xf2, 0xfb, 0xfb, 0x04, 0xf6, 0x1f, 
    0xdd, 0xf5, 0x0e, 0x12, 0x14, 0x35, 0xfc, 0x03, 0xdc, 0x39, 0xfa, 0x08, 
    0x20, 0x1c, 0xd2, 0x0a, 0x03, 0xf5, 0x09, 0xee, 0x01, 0x18, 0x03, 0x3c, 
    0xff, 0x22, 0x0a, 0x03, 0x10, 0x09, 0x70, 0x01, 0x15, 0xf8, 0x1a, 0x13, 
    0xf1, 0x03, 0x07, 0x43, 0x20, 0x02, 0x2b, 0x29, 0x2e, 0x2b, 0x75, 0x27, 
    0x20, 0x10, 0x21, 0xfe, 0xf5, 0xee, 0x1e, 0xf2, 0x29, 0xff, 0xf1, 0x0c, 
    0x07, 0xf5, 0x7f, 0x18, 0x1a, 0xf0, 0x06, 0x25, 0xe2, 0x08, 0x01, 0x28, 
    0xf7, 0x14, 0xe6, 0x10, 0x19, 0xeb, 0xeb, 0x19, 0x08, 0x0d, 0xe7, 0xef, 
    0xee, 0xf3, 0x0f, 0x33, 0x0c, 0x19, 0xff, 0x01, 0x14, 0x05, 0xbe, 0x10, 
    0xf0, 0xff, 0x13, 0xfb, 0xef, 0x04, 0x13, 0x0b, 0xf6, 0x05, 0x02, 0xee, 
    0x18, 0xed, 0xe6, 0x14, 0xe8, 0x10, 0xe2, 0x0a, 0x15, 0xe2, 0xe9, 0x15, 
    0x0d, 0xed, 0xe4, 0x0d, 0x21, 0x0d, 0xe1, 0x01, 0xfd, 0x05, 0xdd, 0xf4, 
    0x00, 0xfa, 0x13, 0x14, 0xe3, 0xf3, 0xfa, 0xef, 0xfa, 0x11, 0xe7, 0xfa, 
    0xda, 0x00, 0xe9, 0xea, 0x08, 0x01, 0xfd, 0x0f, 0xf8, 0x10, 0xec, 0x15, 
    0x18, 0x00, 0xbb, 0x01, 0xe9, 0x06, 0x03, 0x15, 0x11, 0x0d, 0xe6, 0xdd, 
    0x0b, 0x18, 0xdf, 0xdc, 0xf3, 0x0c, 0x81, 0x07, 0xe8, 0xfe, 0xde, 0xdf, 
    0x21, 0x01, 0x0e, 0xe2, 0xf9, 0xe3, 0xe2, 0x0c, 0xf8, 0xe9, 0x93, 0x05, 
    0xe7, 0xd4, 0xf0, 0x06, 0x27, 0xfc, 0x15, 0xff, 0x06, 0x02, 0xed, 0xe5, 
    0xd2, 0xe9, 0x98, 0xf1, 0xfe, 0xf1, 0xe2, 0xe1, 0x03, 0x20, 0xff, 0xdd, 
    0x04, 0xfd, 0xf2, 0xfa, 0x0f, 0xe9, 0x22, 0x1a, 0x0a, 0x02, 0x17, 0xf8, 
    0xf8, 0x16, 0xed, 0xc8, 0x03, 0xf3, 0xf1, 0x09, 0xfb, 0x16, 0x26, 0x14, 
    0xfc, 0x00, 0x1a, 0xe2, 0x22, 0x25, 0x00, 0xec, 0x0c, 0x1b, 0xf5, 0x10, 
    0xf8, 0x0a, 0x1e, 0xe5, 0x04, 0xd8, 0xe4, 0x14, 0x13, 0x20, 0xe4, 0xd3, 
    0xf5, 0x1d, 0x12, 0xef, 0x09, 0xfc, 0x35, 0x1e, 0x0c, 0xdc, 0xf1, 0x1c, 
    0x04, 0x22, 0xeb, 0xd7, 0x10, 0x05, 0xf2, 0xf9, 0xde, 0x07, 0x10, 0x21, 
    0x22, 0xde, 0xfd, 0x06, 0x13, 0xf7, 0x15, 0xfd, 0xf1, 0x1a, 0x08, 0xfa, 
    0xf6, 0x04, 0x2f, 0x0d, 0xfd, 0xe9, 0xfe, 0x0d, 0x0d, 0x0a, 0x13, 0xd5, 
    0xe6, 0xf9, 0x14, 0x0f, 0xf5, 0xd8, 0xb1, 0x06, 0xfa, 0xf3, 0x0a, 0xd6, 
    0x01, 0x1d, 0x16, 0xc1, 0xd9, 0xea, 0xf4, 0x04, 0xce, 0xda, 0x96, 0xd7, 
    0xe3, 0xf7, 0xf6, 0xe7, 0x2d, 0xf6, 0xed, 0xea, 0xe8, 0x1b, 0xfe, 0xd3, 
    0xff, 0xeb, 0x81, 0x09, 0x0f, 0xe4, 0xe5, 0x05, 0x25, 0x08, 0xef, 0xd0, 
    0x15, 0x13, 0xdd, 0x11, 0xf4, 0xfd, 0xdf, 0xea, 0x05, 0xe7, 0x0b, 0xf0, 
    0x15, 0xe5, 0xfb, 0xf4, 0x0d, 0xe7, 0xdd, 0xdb, 0xfb, 0xef, 0xde, 0xfd, 
    0x15, 0xe8, 0x05, 0x11, 0x1c, 0x14, 0xf9, 0xef, 0x07, 0x1b, 0xe9, 0xf0, 
    0xdf, 0x14, 0x01, 0x1b, 0xef, 0xcf, 0x0d, 0x0a, 0x31, 0x27, 0x18, 0xf9, 
    0x0c, 0x0e, 0x26, 0x01, 0xe4, 0x15, 0x31, 0x2c, 0xef, 0xd8, 0x0b, 0xe2, 
    0xf9, 0x04, 0xfe, 0xdd, 0x08, 0x22, 0xec, 0xe4, 0xfe, 0xf3, 0x33, 0x19, 
    0x00, 0xe3, 0x1c, 0x0f, 0x11, 0xfa, 0xf4, 0xdd, 0xff, 0x19, 0x06, 0x20, 
    0x09, 0xec, 0x33, 0x0b, 0x16, 0xda, 0x1c, 0x0f, 0x27, 0xf5, 0xe3, 0xef, 
    0xd7, 0x15, 0xf9, 0x0b, 0xed, 0x00, 0x8d, 0xf6, 0xdf, 0xf1, 0xf9, 0xe7, 
    0x32, 0x17, 0x03, 0xc0, 0xc7, 0x1e, 0x0a, 0xd1, 0xed, 0x05, 0x81, 0xef, 
    0x09, 0x02, 0xfa, 0x05, 0x27, 0x1d, 0xd1, 0xf0, 0xfe, 0x13, 0xeb, 0xf1, 
    0xe6, 0xeb, 0xa3, 0xf3, 0xdc, 0xed, 0x02, 0xd2, 0x11, 0x07, 0xf3, 0x00, 
    0xfc, 0x15, 0xf6, 0x02, 0xf9, 0xe4, 0xa9, 0xfa, 0xd8, 0xf5, 0x01, 0xeb, 
    0x2c, 0x20, 0xe1, 0xd3, 0xde, 0xf6, 0xe3, 0x03, 0xff, 0xf9, 0x9f, 0xf3, 
    0x04, 0xd6, 0x06, 0xf1, 0xff, 0x0f, 0xf7, 0xef, 0xe5, 0x1a, 0x00, 0xd7, 
    0xf8, 0xd5, 0xc9, 0xf2, 0xda, 0xf4, 0xea, 0x10, 0x0c, 0x13, 0x07, 0xe8, 
    0xec, 0x30, 0x21, 0x0a, 0x13, 0xf0, 0x26, 0x06, 0xee, 0xfb, 0x1a, 0x15, 
    0x32, 0x25, 0xfe, 0xe7, 0xf2, 0x0c, 0xfd, 0x10, 0xf6, 0x0d, 0x34, 0x0b, 
    0xea, 0xf1, 0x1d, 0x0a, 0x3d, 0xfb, 0x0b, 0xf9, 0x02, 0x22, 0x0d, 0x28, 
    0x1e, 0x24, 0x28, 0x05, 0xdf, 0xf1, 0xfe, 0x08, 0xf1, 0xf8, 0x24, 0x3e, 
    0x35, 0x15, 0x2a, 0x0f, 0x32, 0xfe, 0x62, 0x02, 0x00, 0x1c, 0x21, 0x27, 
    0x02, 0x2f, 0xfa, 0x30, 0x1d, 0x07, 0xf7, 0x0e, 0x13, 0xfb, 0x7f, 0x29, 
    0x08, 0x0c, 0xf9, 0x2f, 0x09, 0xf7, 0xf3, 0x0f, 0x26, 0x2a, 0xfe, 0x16, 
    0x35, 0x00, 0x60, 0x2f, 0x26, 0xe7, 0x2e, 0x1e, 0xf9, 0x13, 0x13, 0xfb, 
    0xe7, 0x22, 0x03, 0xe3, 0x26, 0x02, 0xe4, 0xfb, 0xe2, 0x07, 0xe7, 0xfa, 
    0xf7, 0x01, 0xeb, 0x2b, 0x19, 0x15, 0x1d, 0xf4, 0x06, 0xef, 0xe3, 0xf8, 
    0x07, 0x1a, 0xea, 0xe3, 0xf2, 0x07, 0xe3, 0x10, 0x19, 0xea, 0x05, 0xfa, 
    0x24, 0xf1, 0xb9, 0xfe, 0xf5, 0xe4, 0xe0, 0xed, 0x01, 0x1d, 0xfe, 0xf8, 
    0x15, 0xf7, 0x00, 0x1c, 0x28, 0x15, 0xc9, 0xe3, 0xfd, 0xfc, 0x01, 0xe3, 
    0x27, 0x00, 0x1b, 0xf1, 0xe2, 0x22, 0xea, 0xea, 0x16, 0x0c, 0xc2, 0xfb, 
    0xee, 0x2d, 0x04, 0xe7, 0x12, 0xfa, 0xdc, 0x0b, 0xff, 0x03, 0x1c, 0x20, 
    0x0f, 0xf0, 0xe6, 0xe4, 0xe2, 0x20, 0xf1, 0x19, 0x26, 0xee, 0xe4, 0xc4, 
    0xd6, 0x09, 0x12, 0xfa, 0xfa, 0xf4, 0x81, 0x10, 0x00, 0xe5, 0xec, 0x10, 
    0xf8, 0xe9, 0xe3, 0xc8, 0x07, 0xf6, 0xdf, 0xda, 0xe4, 0xd8, 0xab, 0xeb, 
    0x0b, 0xcf, 0xf7, 0x06, 0x15, 0x11, 0x24, 0xf4, 0xdc, 0x13, 0xde, 0xdb, 
    0x0c, 0xdd, 0xb9, 0xf5, 0x21, 0xfb, 0xf2, 0xfc, 0x1f, 0xf6, 0xe6, 0xfc, 
    0xf1, 0x1c, 0xf7, 0xf1, 0x16, 0xf8, 0x0d, 0x1a, 0xe2, 0xe5, 0x1a, 0x10, 
    0x18, 0x15, 0xe1, 0xf1, 0x01, 0x06, 0x19, 0xfb, 0xe9, 0xf0, 0x09, 0x0e, 
    0xdf, 0xcf, 0x0f, 0xf0, 0x0d, 0x04, 0x10, 0x16, 0x05, 0x0a, 0x0d, 0xf8, 
    0xf3, 0xf9, 0x20, 0xfd, 0x08, 0x08, 0x25, 0x0e, 0xfb, 0x34, 0x02, 0x0d, 
    0xfe, 0xf9, 0x0b, 0x19, 0xf5, 0xf2, 0x35, 0xf5, 0x20, 0xf7, 0xf0, 0x01, 
    0xf8, 0x26, 0x0e, 0xd7, 0x03, 0x03, 0x23, 0xe8, 0xe9, 0xf6, 0x37, 0xf4, 
    0xee, 0x07, 0xf9, 0x18, 0x05, 0x19, 0x28, 0x1a, 0x22, 0xf4, 0x26, 0xef, 
    0xef, 0x1f, 0x01, 0x2d, 0x16, 0xd6, 0x0c, 0x0f, 0x23, 0xda, 0xb3, 0xdb, 
    0xc6, 0x06, 0xd7, 0xfa, 0xe0, 0xf0, 0x4f, 0xe8, 0xd2, 0x59, 0xd0, 0xe2, 
    0x3d, 0x09, 0xae, 0xbe, 0xbe, 0xd8, 0xb5, 0x11, 0xeb, 0xc6, 0x53, 0xa4, 
    0xb7, 0x65, 0xec, 0xea, 0x17, 0xe1, 0xae, 0x47, 0xdc, 0xfb, 0xaf, 0xcd, 
    0xf0, 0xee, 0x68, 0xe3, 0x97, 0x7a, 0xe3, 0xb3, 0x29, 0x0e, 0xdf, 0x03, 
    0xf5, 0xc6, 0xee, 0xc3, 0xb3, 0xf3, 0x19, 0x1c, 0x48, 0x2e, 0x28, 0xdf, 
    0x55, 0x1e, 0xe0, 0x27, 0x05, 0xf2, 0xf1, 0xc6, 0x95, 0xdf, 0x08, 0x1e, 
    0x19, 0x14, 0xfe, 0xf0, 0x35, 0x45, 0xeb, 0x3e, 0x07, 0x05, 0x0e, 0xeb, 
    0x81, 0xcd, 0x24, 0x24, 0x53, 0x43, 0x43, 0xea, 0xef, 0xbf, 0xe2, 0x19, 
    0x1b, 0xef, 0x11, 0x11, 0xef, 0xdd, 0xf7, 0xdf, 0x09, 0x0a, 0xb8, 0xcf, 
    0xd8, 0xb9, 0x12, 0x40, 0xfd, 0xbd, 0x02, 0xfb, 0x00, 0x0a, 0x0e, 0xa2, 
    0x1f, 0x12, 0xba, 0xba, 0xad, 0xc5, 0xda, 0x0e, 0x34, 0xd7, 0xbf, 0xd8, 
    0xd6, 0xe8, 0x1c, 0xb9, 0x0d, 0xfc, 0xb9, 0xd5, 0xa8, 0xf5, 0xca, 0xe6, 
    0x81, 0xac, 0x0e, 0x42, 0x0c, 0x1f, 0x8a, 0xc6, 0x14, 0x0d, 0xe4, 0xf1, 
    0xce, 0xe6, 0xe8, 0xa2, 0xce, 0xd2, 0xe6, 0xea, 0xfc, 0xf8, 0x99, 0x18, 
    0xd8, 0xaf, 0x9d, 0x14, 0xbd, 0xf9, 0x10, 0x09, 0x93, 0xc5, 0x21, 0xb5, 
    0x0b, 0x3a, 0xd7, 0xa8, 0xc6, 0x09, 0x1a, 0xb6, 0xc9, 0xd8, 0x53, 0x59, 
    0x3d, 0x44, 0x21, 0xf8, 0xe9, 0x55, 0x40, 0xd2, 0xae, 0x4d, 0xee, 0x27, 
    0xe1, 0x3e, 0xb3, 0x3c, 0xd6, 0x31, 0xb6, 0xb9, 0x31, 0x12, 0x12, 0xf6, 
    0xb0, 0x0e, 0xad, 0x0b, 0xbf, 0x18, 0x21, 0x4b, 0xbd, 0x2b, 0xb7, 0x26, 
    0x15, 0xfe, 0x41, 0xcc, 0x3c, 0xfd, 0x15, 0xbd, 0xb8, 0x05, 0xfb, 0x33, 
    0x10, 0xe5, 0x03, 0xb3, 0x09, 0x40, 0xfb, 0xa6, 0xe9, 0xf0, 0x28, 0xf5, 
    0xfd, 0x00, 0xc7, 0xea, 0x12, 0x13, 0xe5, 0xb9, 0xd5, 0xa2, 0x29, 0xf1, 
    0xf3, 0x04, 0x16, 0xc6, 0xa7, 0x11, 0x33, 0xfc, 0xaf, 0x12, 0x33, 0x3a, 
    0x25, 0x08, 0xdb, 0xfa, 0xf4, 0xc0, 0x0b, 0xbd, 0x2a, 0xe2, 0x21, 0xc5, 
    0xee, 0x07, 0x03, 0x07, 0xd5, 0x0b, 0x81, 0xe0, 0xe8, 0xda, 0xfb, 0xdb, 
    0xfc, 0xff, 0xe4, 0xb6, 0xc9, 0x24, 0xe8, 0xf3, 0xe1, 0x10, 0xab, 0xeb, 
    0x18, 0xfa, 0xe5, 0x03, 0x18, 0xec, 0xf8, 0xd7, 0x12, 0xf3, 0x10, 0xd9, 
    0xc1, 0x0a, 0xad, 0xe2, 0xfc, 0xc8, 0xef, 0x07, 0x0b, 0x14, 0xe1, 0xea, 
    0x04, 0xf0, 0xe5, 0x16, 0xed, 0xfd, 0x15, 0x22, 0x0b, 0xf1, 0x23, 0x09, 
    0x0b, 0x31, 0x12, 0xfa, 0xdf, 0x1f, 0x1c, 0xe1, 0xdd, 0x14, 0x46, 0xf8, 
    0x15, 0xcb, 0xf9, 0x0b, 0x1b, 0x1d, 0x06, 0xdf, 0x13, 0xf0, 0x28, 0x1e, 
    0xd1, 0x10, 0x23, 0x00, 0xf8, 0x0a, 0x00, 0x1d, 0x20, 0x3a, 0xe0, 0xfc, 
    0x0b, 0x28, 0x17, 0x2a, 0x1a, 0x20, 0x43, 0x13, 0x04, 0x06, 0x1d, 0xfe, 
    0xff, 0x25, 0xf9, 0x0c, 0x1a, 0xe1, 0x17, 0xf1, 0x05, 0xe8, 0x06, 0x17, 
    0xf6, 0xee, 0x0a, 0x13, 0x29, 0x37, 0x17, 0x01, 0x14, 0x1b, 0x0e, 0xfe, 
    0xd3, 0xfc, 0xff, 0xf0, 0x00, 0xdf, 0x2d, 0xf6, 0x01, 0x22, 0xff, 0x23, 
    0x17, 0x0d, 0x00, 0x1e, 0x45, 0x00, 0x6c, 0x0b, 0x10, 0xf9, 0xf3, 0xfb, 
    0x1d, 0x0f, 0x16, 0x25, 0x0a, 0x19, 0x36, 0x05, 0x22, 0x1c, 0x7f, 0x2e, 
    0xfd, 0xf5, 0x12, 0x18, 0xeb, 0xfa, 0xec, 0x24, 0x1e, 0x05, 0xf2, 0xfc, 
    0x10, 0x0a, 0x56, 0x18, 0x12, 0x02, 0xe9, 0x10, 0x16, 0xfe, 0xdb, 0x05, 
    0xf7, 0xf9, 0xf0, 0xe3, 0x07, 0x18, 0x00, 0xea, 0x00, 0xff, 0xea, 0x0b, 
    0x12, 0x1a, 0xee, 0x11, 0x0e, 0x03, 0x02, 0xf9, 0x13, 0x18, 0xd9, 0xe2, 
    0x00, 0xf3, 0x12, 0xf7, 0x07, 0xed, 0x07, 0xe8, 0xf0, 0xf1, 0xfc, 0xe7, 
    0x02, 0xf4, 0xff, 0xe8, 0xda, 0x05, 0xeb, 0xd9, 0x02, 0xe2, 0xfe, 0xdf, 
    0xda, 0x27, 0xdb, 0xfb, 0x1a, 0xf1, 0xd7, 0xf1, 0xde, 0x0e, 0xe3, 0xfc, 
    0xf5, 0x1f, 0xd7, 0x1b, 0x08, 0x21, 0xf6, 0x0d, 0xe8, 0x11, 0xfb, 0x03, 
    0xea, 0x04, 0x03, 0x04, 0x1e, 0x15, 0xd4, 0xfe, 0xde, 0xf7, 0xde, 0xe1, 
    0x12, 0xf2, 0x02, 0xf7, 0xf1, 0x1e, 0xe6, 0xd5, 0x0f, 0x16, 0xdb, 0xae, 
    0xec, 0x0e, 0xd7, 0xcf, 0xee, 0xfb, 0x9d, 0xfa, 0xfe, 0x0a, 0xfa, 0x15, 
    0x11, 0x09, 0xd4, 0xf8, 0x09, 0xf9, 0x11, 0x10, 0xdf, 0xde, 0xaa, 0x09, 
    0xdc, 0x17, 0xe5, 0xfd, 0x2b, 0x03, 0xf7, 0x0f, 0xf0, 0xe0, 0x12, 0xd7, 
    0xc7, 0xed, 0x81, 0xeb, 0x14, 0x03, 0xfd, 0xec, 0x0f, 0x0f, 0xf4, 0xd5, 
    0xe6, 0x26, 0xea, 0x05, 0x05, 0xe1, 0x9a, 0x14, 0xda, 0xd7, 0xff, 0xdd, 
    0xf4, 0x29, 0x17, 0xbe, 0xe8, 0xec, 0x17, 0xfd, 0xed, 0x16, 0xa5, 0x03, 
    0x00, 0x0b, 0x20, 0xd9, 0x05, 0xea, 0xf2, 0x0f, 0xe2, 0xe5, 0x11, 0xed, 
    0xd4, 0xd8, 0xac, 0x22, 0xf2, 0xdd, 0xf1, 0x0e, 0x2d, 0x17, 0x30, 0xe2, 
    0x12, 0x1a, 0x2f, 0x17, 0x25, 0x19, 0x29, 0x21, 0xfd, 0xd9, 0x08, 0x0d, 
    0x2a, 0x2d, 0xf0, 0xd5, 0x18, 0x1b, 0x04, 0x16, 0xf7, 0xed, 0x14, 0xfd, 
    0x25, 0xd4, 0x0d, 0xed, 0x20, 0x15, 0x0e, 0xf9, 0x24, 0x1d, 0xf4, 0x21, 
    0xea, 0x0d, 0x3d, 0x36, 0xf7, 0x12, 0x0c, 0x16, 0x02, 0x1e, 0x07, 0x09, 
    0xf6, 0x07, 0x12, 0x12, 0x2b, 0x1f, 0x5c, 0xf8, 0x16, 0x26, 0x0e, 0x13, 
    0x11, 0xf2, 0x06, 0x35, 0x09, 0x04, 0x20, 0x11, 0x15, 0x15, 0x7f, 0x1f, 
    0xfc, 0x00, 0xff, 0x02, 0x16, 0xf5, 0x02, 0x02, 0x01, 0x0b, 0xfe, 0x2c, 
    0x2a, 0x1e, 0x5a, 0xf4, 0x06, 0x24, 0xf5, 0x28, 0xf3, 0xed, 0xfb, 0x18, 
    0x10, 0x0c, 0x06, 0x0e, 0x02, 0x1e, 0xcf, 0x05, 0xe6, 0xff, 0x1d, 0x11, 
    0xe2, 0x0a, 0x0d, 0xff, 0xff, 0x0b, 0x1d, 0x11, 0xfe, 0x06, 0xfc, 0x11, 
    0xf3, 0x16, 0x0f, 0x07, 0xe0, 0xf0, 0x0c, 0xfe, 0x21, 0x1d, 0xf5, 0x14, 
    0x08, 0xee, 0xec, 0x0b, 0x1b, 0x29, 0x1b, 0x1f, 0xfa, 0xe5, 0x15, 0xff, 
    0xf4, 0xf6, 0x00, 0x05, 0xfb, 0x11, 0xd3, 0x09, 0xf3, 0x06, 0x10, 0xe6, 
    0x01, 0x00, 0xf6, 0x1d, 0xe4, 0xf3, 0x0e, 0xf7, 0x18, 0xe7, 0xe0, 0x06, 
    0xeb, 0x24, 0x0c, 0x19, 0xe7, 0xf9, 0x03, 0x01, 0x01, 0x0f, 0xe1, 0x17, 
    0x1f, 0x04, 0xdc, 0x0a, 0x01, 0xf8, 0xeb, 0x09, 0x36, 0xff, 0xff, 0xff, 
    0x04, 0x00, 0x00, 0x00, 0x80, 0x00, 0x00, 0x00, 0x36, 0x2c, 0x01, 0x00, 
    0x0d, 0xe0, 0x00, 0x00, 0x91, 0x4d, 0x00, 0x00, 0xef, 0x97, 0x00, 0x00, 
    0xb1, 0xfb, 0xff, 0xff, 0x8d, 0x89, 0x00, 0x00, 0x50, 0x8a, 0x00, 0x00, 
    0xe7, 0xa3, 0x00, 0x00, 0xb6, 0xa8, 0x01, 0x00, 0x3f, 0x42, 0x00, 0x00, 
    0x39, 0x0a, 0xff, 0xff, 0x2a, 0x51, 0x00, 0x00, 0xca, 0xf8, 0x00, 0x00, 
    0xa9, 0x7d, 0x00, 0x00, 0x87, 0x43, 0x00, 0x00, 0x4c, 0x69, 0x00, 0x00, 
    0xd7, 0x38, 0x00, 0x00, 0xe2, 0x90, 0x00, 0x00, 0xc4, 0xdb, 0xff, 0xff, 
    0x07, 0x36, 0x01, 0x00, 0x09, 0x40, 0x00, 0x00, 0xae, 0x2c, 0x00, 0x00, 
    0x93, 0x52, 0x00, 0x00, 0xca, 0xb3, 0x00, 0x00, 0x1d, 0xcb, 0x00, 0x00, 
    0xe3, 0xa2, 0x00, 0x00, 0x20, 0x66, 0x01, 0x00, 0x39, 0x36, 0xff, 0xff, 
    0xf4, 0x63, 0x00, 0x00, 0xcb, 0xe0, 0x00, 0x00, 0x4e, 0xbd, 0x00, 0x00, 
    0x0d, 0x62, 0x00, 0x00, 0xc2, 0xff, 0xff, 0xff, 0x04, 0x00, 0x00, 0x00, 
    0x20, 0x00, 0x00, 0x00, 0xa1, 0xa6, 0xe3, 0xd9, 0x1a, 0x7b, 0x18, 0x3d, 
    0xba, 0x0b, 0xc2, 0x3a, 0xba, 0x1c, 0x2a, 0x31, 0xea, 0x2e, 0x6a, 0xe4, 
    0x42, 0xee, 0xb9, 0xe2, 0x23, 0xbb, 0x7f, 0x1f, 0xda, 0x4e, 0xcb, 0x1b, 
    0xee, 0xff, 0xff, 0xff, 0x04, 0x00, 0x00, 0x00, 0x04, 0x00, 0x00, 0x00, 
    0xa1, 0xf9, 0xff, 0xff, 0x00, 0x00, 0x06, 0x00, 0x08, 0x00, 0x04, 0x00, 
    0x06, 0x00, 0x00, 0x00, 0x04, 0x00, 0x00, 0x00, 0x08, 0x00, 0x00, 0x00, 
    0x01, 0x00, 0x00, 0x00, 0x02, 0x00, 0x00, 0x00, 0xf0, 0xec, 0xff, 0xff, 
    0xf4, 0xec, 0xff, 0xff, 0x0f, 0x00, 0x00, 0x00, 0x4d, 0x4c, 0x49, 0x52, 
    0x20, 0x43, 0x6f, 0x6e, 0x76, 0x65, 0x72, 0x74, 0x65, 0x64, 0x2e, 0x00, 
    0x01, 0x00, 0x00, 0x00, 0x14, 0x00, 0x00, 0x00, 0x00, 0x00, 0x0e, 0x00, 
    0x18, 0x00, 0x14, 0x00, 0x10, 0x00, 0x0c, 0x00, 0x08, 0x00, 0x04, 0x00, 
    0x0e, 0x00, 0x00, 0x00, 0x14, 0x00, 0x00, 0x00, 0x1c, 0x00, 0x00, 0x00, 
    0x84, 0x02, 0x00, 0x00, 0x88, 0x02, 0x00, 0x00, 0x8c, 0x02, 0x00, 0x00, 
    0x04, 0x00, 0x00, 0x00, 0x6d, 0x61, 0x69, 0x6e, 0x00, 0x00, 0x00, 0x00, 
    0x0a, 0x00, 0x00, 0x00, 0x4c, 0x02, 0x00, 0x00, 0xf0, 0x01, 0x00, 0x00, 
    0x8c, 0x01, 0x00, 0x00, 0x48, 0x01, 0x00, 0x00, 0x04, 0x01, 0x00, 0x00, 
    0xc0, 0x00, 0x00, 0x00, 0x8c, 0x00, 0x00, 0x00, 0x54, 0x00, 0x00, 0x00, 
    0x30, 0x00, 0x00, 0x00, 0x04, 0x00, 0x00, 0x00, 0xe6, 0xfd, 0xff, 0xff, 
    0x08, 0x00, 0x00, 0x00, 0x0c, 0x00, 0x00, 0x00, 0x01, 0x00, 0x00, 0x00, 
    0x13, 0x00, 0x00, 0x00, 0x01, 0x00, 0x00, 0x00, 0x12, 0x00, 0x00, 0x00, 
    0x00, 0x00, 0x0a, 0x00, 0x10, 0x00, 0x0c, 0x00, 0x08, 0x00, 0x04, 0x00, 
    0x0a, 0x00, 0x00, 0x00, 0x0c, 0x00, 0x00, 0x00, 0x10, 0x00, 0x00, 0x00, 
    0x05, 0x00, 0x00, 0x00, 0x01, 0x00, 0x00, 0x00, 0x12, 0x00, 0x00, 0x00, 
    0x01, 0x00, 0x00, 0x00, 0x11, 0x00, 0x00, 0x00, 0x8a, 0xfe, 0xff, 0xff, 
    0x14, 0x00, 0x00, 0x00, 0x00, 0x00, 0x00, 0x08, 0x10, 0x00, 0x00, 0x00, 
    0x14, 0x00, 0x00, 0x00, 0x04, 0x00, 0x00, 0x00, 0xd4, 0xed, 0xff, 0xff, 
    0x01, 0x00, 0x00, 0x00, 0x11, 0x00, 0x00, 0x00, 0x03, 0x00, 0x00, 0x00, 
    0x10, 0x00, 0x00, 0x00, 0x03, 0x00, 0x00, 0x00, 0x02, 0x00, 0x00, 0x00, 
    0xbe, 0xfe, 0xff, 0xff, 0x14, 0x00, 0x00, 0x00, 0x00, 0x00, 0x00, 0x1b, 
    0x10, 0x00, 0x00, 0x00, 0x14, 0x00, 0x00, 0x00, 0x03, 0x00, 0x00, 0x00, 
    0x08, 0xee, 0xff, 0xff, 0x01, 0x00, 0x00, 0x00, 0x10, 0x00, 0x00, 0x00, 
    0x02, 0x00, 0x00, 0x00, 0x0f, 0x00, 0x00, 0x00, 0x01, 0x00, 0x00, 0x00, 
    0xee, 0xfe, 0xff, 0xff, 0x14, 0x00, 0x00, 0x00, 0x00, 0x00, 0x00, 0x01, 
    0x1c, 0x00, 0x00, 0x00, 0x20, 0x00, 0x00, 0x00, 0x01, 0x00, 0x00, 0x00, 
    0xe0, 0xfe, 0xff, 0xff, 0x00, 0x00, 0x00, 0x01, 0x01, 0x00, 0x00, 0x00, 
    0x01, 0x00, 0x00, 0x00, 0x01, 0x00, 0x00, 0x00, 0x0f, 0x00, 0x00, 0x00, 
    0x03, 0x00, 0x00, 0x00, 0x0e, 0x00, 0x00, 0x00, 0x05, 0x00, 0x00, 0x00, 
    0x04, 0x00, 0x00, 0x00, 0x2e, 0xff, 0xff, 0xff, 0x14, 0x00, 0x00, 0x00, 
    0x00, 0x00, 0x00, 0x05, 0x24, 0x00, 0x00, 0x00, 0x28, 0x00, 0x00, 0x00, 
    0x02, 0x00, 0x00, 0x00, 0x7e, 0xff, 0xff, 0xff, 0x02, 0x00, 0x00, 0x00, 
    0x02, 0x00, 0x00, 0x00, 0x02, 0x00, 0x00, 0x00, 0x02, 0x00, 0x00, 0x00, 
    0x00, 0x00, 0x00, 0x01, 0x01, 0x00, 0x00, 0x00, 0x0e, 0x00, 0x00, 0x00, 
    0x01, 0x00, 0x00, 0x00, 0x0d, 0x00, 0x00, 0x00, 0x6e, 0xff, 0xff, 0xff, 
    0x14, 0x00, 0x00, 0x00, 0x00, 0x00, 0x00, 0x01, 0x1c, 0x00, 0x00, 0x00, 
    0x20, 0x00, 0x00, 0x00, 0x01, 0x00, 0x00, 0x00, 0x60, 0xff, 0xff, 0xff, 
    0x00, 0x00, 0x00, 0x01, 0x01, 0x00, 0x00, 0x00, 0x01, 0x00, 0x00, 0x00, 
    0x01, 0x00, 0x00, 0x00, 0x0d, 0x00, 0x00, 0x00, 0x03, 0x00, 0x00, 0x00, 
    0x0c, 0x00, 0x00, 0x00, 0x07, 0x00, 0x00, 0x00, 0x06, 0x00, 0x00, 0x00, 
    0xae, 0xff, 0xff, 0xff, 0x24, 0x00, 0x00, 0x00, 0x00, 0x00, 0x00, 0x05, 
    0x34, 0x00, 0x00, 0x00, 0x38, 0x00, 0x00, 0x00, 0x02, 0x00, 0x00, 0x00, 
    0x00, 0x00, 0x0e, 0x00, 0x18, 0x00, 0x17, 0x00, 0x10, 0x00, 0x0c, 0x00, 
    0x08, 0x00, 0x04, 0x00, 0x0e, 0x00, 0x00, 0x00, 0x02, 0x00, 0x00, 0x00, 
    0x02, 0x00, 0x00, 0x00, 0x02, 0x00, 0x00, 0x00, 0x02, 0x00, 0x00, 0x00, 
    0x00, 0x00, 0x00, 0x01, 0x01, 0x00, 0x00, 0x00, 0x0c, 0x00, 0x00, 0x00, 
    0x01, 0x00, 0x00, 0x00, 0x0b, 0x00, 0x00, 0x00, 0x00, 0x00, 0x0e, 0x00, 
    0x18, 0x00, 0x14, 0x00, 0x10, 0x00, 0x0c, 0x00, 0x0b, 0x00, 0x04, 0x00, 
    0x0e, 0x00, 0x00, 0x00, 0x20, 0x00, 0x00, 0x00, 0x00, 0x00, 0x00, 0x01, 
    0x28, 0x00, 0x00, 0x00, 0x2c, 0x00, 0x00, 0x00, 0x01, 0x00, 0x00, 0x00, 
    0x0c, 0x00, 0x10, 0x00, 0x00, 0x00, 0x0c, 0x00, 0x08, 0x00, 0x07, 0x00, 
    0x0c, 0x00, 0x00, 0x00, 0x00, 0x00, 0x00, 0x01, 0x01, 0x00, 0x00, 0x00, 
    0x01, 0x00, 0x00, 0x00, 0x01, 0x00, 0x00, 0x00, 0x0b, 0x00, 0x00, 0x00, 
    0x03, 0x00, 0x00, 0x00, 0x0a, 0x00, 0x00, 0x00, 0x09, 0x00, 0x00, 0x00, 
    0x08, 0x00, 0x00, 0x00, 0x00, 0x00, 0x0a, 0x00, 0x0c, 0x00, 0x00, 0x00, 
    0x08, 0x00, 0x04, 0x00, 0x0a, 0x00, 0x00, 0x00, 0x08, 0x00, 0x00, 0x00, 
    0x0c, 0x00, 0x00, 0x00, 0x01, 0x00, 0x00, 0x00, 0x0a, 0x00, 0x00, 0x00, 
    0x01, 0x00, 0x00, 0x00, 0x00, 0x00, 0x00, 0x00, 0x01, 0x00, 0x00, 0x00, 
    0x13, 0x00, 0x00, 0x00, 0x01, 0x00, 0x00, 0x00, 0x00, 0x00, 0x00, 0x00, 
    0x14, 0x00, 0x00, 0x00, 0xa4, 0x10, 0x00, 0x00, 0x18, 0x10, 0x00, 0x00, 
    0x88, 0x0f, 0x00, 0x00, 0x1c, 0x0f, 0x00, 0x00, 0x28, 0x0d, 0x00, 0x00, 
    0x3c, 0x0b, 0x00, 0x00, 0x08, 0x0a, 0x00, 0x00, 0xdc, 0x08, 0x00, 0x00, 
    0x08, 0x08, 0x00, 0x00, 0xd4, 0x06, 0x00, 0x00, 0x50, 0x06, 0x00, 0x00, 
    0x5c, 0x05, 0x00, 0x00, 0xc0, 0x04, 0x00, 0x00, 0xc4, 0x03, 0x00, 0x00, 
    0x28, 0x03, 0x00, 0x00, 0x2c, 0x02, 0x00, 0x00, 0x98, 0x01, 0x00, 0x00, 
    0xfc, 0x00, 0x00, 0x00, 0x80, 0x00, 0x00, 0x00, 0x04, 0x00, 0x00, 0x00, 
    0xc2, 0xef, 0xff, 0xff, 0x00, 0x00, 0x00, 0x01, 0x18, 0x00, 0x00, 0x00, 
    0x20, 0x00, 0x00, 0x00, 0x3c, 0x00, 0x00, 0x00, 0x14, 0x00, 0x00, 0x00, 
    0x00, 0x00, 0x00, 0x03, 0x50, 0x00, 0x00, 0x00, 0x02, 0x00, 0x00, 0x00, 
    0xff, 0xff, 0xff, 0xff, 0x01, 0x00, 0x00, 0x00, 0xa4, 0xef, 0xff, 0xff, 
    0x08, 0x00, 0x00, 0x00, 0x10, 0x00, 0x00, 0x00, 0x01, 0x00, 0x00, 0x00, 
    0x00, 0x00, 0x00, 0x00, 0x00, 0x00, 0x00, 0x00, 0x01, 0x00, 0x00, 0x00, 
    0x00, 0x00, 0x80, 0x3b, 0x19, 0x00, 0x00, 0x00, 0x53, 0x74, 0x61, 0x74, 
    0x65, 0x66, 0x75, 0x6c, 0x50, 0x61, 0x72, 0x74, 0x69, 0x74, 0x69, 0x6f, 
    0x6e, 0x65, 0x64, 0x43, 0x61, 0x6c, 0x6c, 0x3a, 0x30, 0x00, 0x00, 0x00, 
    0x02, 0x00, 0x00, 0x00, 0x01, 0x00, 0x00, 0x00, 0x01, 0x00, 0x00, 0x00, 
    0x3a, 0xf0, 0xff, 0xff, 0x00, 0x00, 0x00, 0x01, 0x18, 0x00, 0x00, 0x00, 
    0x20, 0x00, 0x00, 0x00, 0x3c, 0x00, 0x00, 0x00, 0x13, 0x00, 0x00, 0x00, 
    0x00, 0x00, 0x00, 0x09, 0x50, 0x00, 0x00, 0x00, 0x02, 0x00, 0x00, 0x00, 
    0xff, 0xff, 0xff, 0xff, 0x01, 0x00, 0x00, 0x00, 0x1c, 0xf0, 0xff, 0xff, 
    0x08, 0x00, 0x00, 0x00, 0x10, 0x00, 0x00, 0x00, 0x01, 0x00, 0x00, 0x00, 
    0x80, 0xff, 0xff, 0xff, 0xff, 0xff, 0xff, 0xff, 0x01, 0x00, 0x00, 0x00, 
    0x00, 0x00, 0x80, 0x3b, 0x1a, 0x00, 0x00, 0x00, 0x53, 0x74, 0x61, 0x74, 
    0x65, 0x66, 0x75, 0x6c, 0x50, 0x61, 0x72, 0x74, 0x69, 0x74, 0x69, 0x6f, 
    0x6e, 0x65, 0x64, 0x43, 0x61, 0x6c, 0x6c, 0x3a, 0x30, 0x31, 0x00, 0x00, 
    0x02, 0x00, 0x00, 0x00, 0x01, 0x00, 0x00, 0x00, 0x01, 0x00, 0x00, 0x00, 
    0xb2, 0xf0, 0xff, 0xff, 0x00, 0x00, 0x00, 0x01, 0x18, 0x00, 0x00, 0x00, 
    0x20, 0x00, 0x00, 0x00, 0x3c, 0x00, 0x00, 0x00, 0x12, 0x00, 0x00, 0x00, 
    0x00, 0x00, 0x00, 0x09, 0x70, 0x00, 0x00, 0x00, 0x02, 0x00, 0x00, 0x00, 
    0xff, 0xff, 0xff, 0xff, 0x01, 0x00, 0x00, 0x00, 0x94, 0xf0, 0xff, 0xff, 
    0x08, 0x00, 0x00, 0x00, 0x10, 0x00, 0x00, 0x00, 0x01, 0x00, 0x00, 0x00, 
    0x80, 0xff, 0xff, 0xff, 0xff, 0xff, 0xff, 0xff, 0x01, 0x00, 0x00, 0x00, 
    0x21, 0x31, 0xc5, 0x3a, 0x38, 0x00, 0x00, 0x00, 0x73, 0x65, 0x71, 0x75, 
    0x65, 0x6e, 0x74, 0x69, 0x61, 0x6c, 0x5f, 0x33, 0x2f, 0x64, 0x65, 0x6e, 
    0x73, 0x65, 0x5f, 0x33, 0x2f, 0x4d, 0x61, 0x74, 0x4d, 0x75, 0x6c, 0x3b, 
    0x73, 0x65, 0x71, 0x75, 0x65, 0x6e, 0x74, 0x69, 0x61, 0x6c, 0x5f, 0x33, 
    0x2f, 0x64, 0x65, 0x6e, 0x73, 0x65, 0x5f, 0x33, 0x2f, 0x42, 0x69, 0x61, 
    0x73, 0x41, 0x64, 0x64, 0x00, 0x00, 0x00, 0x00, 0x02, 0x00, 0x00, 0x00, 
    0x01, 0x00, 0x00, 0x00, 0x01, 0x00, 0x00, 0x00, 0x4a, 0xf1, 0xff, 0xff, 
    0x00, 0x00, 0x00, 0x01, 0x18, 0x00, 0x00, 0x00, 0x20, 0x00, 0x00, 0x00, 
    0x40, 0x00, 0x00, 0x00, 0x11, 0x00, 0x00, 0x00, 0x00, 0x00, 0x00, 0x09, 
    0x68, 0x00, 0x00, 0x00, 0x02, 0x00, 0x00, 0x00, 0xff, 0xff, 0xff, 0xff, 
    0x20, 0x00, 0x00, 0x00, 0x2c, 0xf1, 0xff, 0xff, 0x08, 0x00, 0x00, 0x00, 
    0x14, 0x00, 0x00, 0x00, 0x01, 0x00, 0x00, 0x00, 0x80, 0xff, 0xff, 0xff, 
    0xff, 0xff, 0xff, 0xff, 0x00, 0x00, 0x00, 0x00, 0x01, 0x00, 0x00, 0x00, 
    0x43, 0x93, 0x5f, 0x3a, 0x2c, 0x00, 0x00, 0x00, 0x73, 0x65, 0x71, 0x75, 
    0x65, 0x6e, 0x74, 0x69, 0x61, 0x6c, 0x5f, 0x33, 0x2f, 0x67, 0x6c, 0x6f, 
    0x62, 0x61, 0x6c, 0x5f, 0x61, 0x76, 0x65, 0x72, 0x61, 0x67, 0x65, 0x5f, 
    0x70, 0x6f, 0x6f, 0x6c, 0x69, 0x6e, 0x67, 0x32, 0x64, 0x5f, 0x33, 0x2f, 
    0x4d, 0x65, 0x61, 0x6e, 0x00, 0x00, 0x00, 0x00, 0x02, 0x00, 0x00, 0x00, 
    0x01, 0x00, 0x00, 0x00, 0x20, 0x00, 0x00, 0x00, 0xda, 0xf1, 0xff, 0xff, 
    0x00, 0x00, 0x00, 0x01, 0x18, 0x00, 0x00, 0x00, 0x28, 0x00, 0x00, 0x00, 
    0x48, 0x00, 0x00, 0x00, 0x10, 0x00, 0x00, 0x00, 0x00, 0x00, 0x00, 0x09, 
    0xc8, 0x00, 0x00, 0x00, 0x04, 0x00, 0x00, 0x00, 0xff, 0xff, 0xff, 0xff, 
    0x10, 0x00, 0x00, 0x00, 0x10, 0x00, 0x00, 0x00, 0x20, 0x00, 0x00, 0x00, 
    0xc4, 0xf1, 0xff, 0xff, 0x08, 0x00, 0x00, 0x00, 0x14, 0x00, 0x00, 0x00, 
    0x01, 0x00, 0x00, 0x00, 0x80, 0xff, 0xff, 0xff, 0xff, 0xff, 0xff, 0xff, 
    0x00, 0x00, 0x00, 0x00, 0x01, 0x00, 0x00, 0x00, 0xf2, 0x75, 0x7f, 0x3a, 
    0x86, 0x00, 0x00, 0x00, 0x73, 0x65, 0x71, 0x75, 0x65, 0x6e, 0x74, 0x69, 
    0x61, 0x6c, 0x5f, 0x33, 0x2f, 0x63, 0x6f, 0x6e, 0x76, 0x32, 0x64, 0x5f, 
    0x31, 0x31, 0x2f, 0x52, 0x65, 0x6c, 0x75, 0x3b, 0x73, 0x65, 0x71, 0x75, 
    0x65, 0x6e, 0x74, 0x69, 0x61, 0x6c, 0x5f, 0x33, 0x2f, 0x63, 0x6f, 0x6e, 
    0x76, 0x32, 0x64, 0x5f, 0x31, 0x31, 0x2f, 0x42, 0x69, 0x61, 0x73, 0x41, 
    0x64, 0x64, 0x3b, 0x73, 0x65, 0x71, 0x75, 0x65, 0x6e, 0x74, 0x69, 0x61, 
    0x6c, 0x5f, 0x33, 0x2f, 0x63, 0x6f, 0x6e, 0x76, 0x32, 0x64, 0x5f, 0x31, 
    0x31, 0x2f, 0x43, 0x6f, 0x6e, 0x76, 0x32, 0x44, 0x3b, 0x73, 0x65, 0x71, 
    0x75, 0x65, 0x6e, 0x74, 0x69, 0x61, 0x6c, 0x5f, 0x33, 0x2f, 0x63, 0x6f, 
    0x6e, 0x76, 0x32, 0x64, 0x5f, 0x31, 0x31, 0x2f, 0x42, 0x69, 0x61, 0x73, 
    0x41, 0x64, 0x64, 0x2f, 0x52, 0x65, 0x61, 0x64, 0x56, 0x61, 0x72, 0x69, 
    0x61, 0x62, 0x6c, 0x65, 0x4f, 0x70, 0x00, 0x00, 0x04, 0x00, 0x00, 0x00, 
    0x01, 0x00, 0x00, 0x00, 0x10, 0x00, 0x00, 0x00, 0x10, 0x00, 0x00, 0x00, 
    0x20, 0x00, 0x00, 0x00, 0xd2, 0xf2, 0xff, 0xff, 0x00, 0x00, 0x00, 0x01, 
    0x18, 0x00, 0x00, 0x00, 0x28, 0x00, 0x00, 0x00, 0x48, 0x00, 0x00, 0x00, 
    0x0f, 0x00, 0x00, 0x00, 0x00, 0x00, 0x00, 0x09, 0x68, 0x00, 0x00, 0x00, 
    0x04, 0x00, 0x00, 0x00, 0xff, 0xff, 0xff, 0xff, 0x10, 0x00, 0x00, 0x00, 
    0x10, 0x00, 0x00, 0x00, 0x10, 0x00, 0x00, 0x00, 0xbc, 0xf2, 0xff, 0xff, 
    0x08, 0x00, 0x00, 0x00, 0x14, 0x00, 0x00, 0x00, 0x01, 0x00, 0x00, 0x00, 
    0x80, 0xff, 0xff, 0xff, 0xff, 0xff, 0xff, 0xff, 0x00, 0x00, 0x00, 0x00, 
    0x01, 0x00, 0x00, 0x00, 0x57, 0x25, 0xc2, 0x39, 0x24, 0x00, 0x00, 0x00, 
    0x73, 0x65, 0x71, 0x75, 0x65, 0x6e, 0x74, 0x69, 0x61, 0x6c, 0x5f, 0x33, 
    0x2f, 0x6d, 0x61, 0x78, 0x5f, 0x70, 0x6f, 0x6f, 0x6c, 0x69, 0x6e, 0x67, 
    0x32, 0x64, 0x5f, 0x37, 0x2f, 0x4d, 0x61, 0x78, 0x50, 0x6f, 0x6f, 0x6c, 
    0x00, 0x00, 0x00, 0x00, 0x04, 0x00, 0x00, 0x00, 0x01, 0x00, 0x00, 0x00, 
    0x10, 0x00, 0x00, 0x00, 0x10, 0x00, 0x00, 0x00, 0x10, 0x00, 0x00, 0x00, 
    0x6a, 0xf3, 0xff, 0xff, 0x00, 0x00, 0x00, 0x01, 0x18, 0x00, 0x00, 0x00, 
    0x28, 0x00, 0x00, 0x00, 0x48, 0x00, 0x00, 0x00, 0x0e, 0x00, 0x00, 0x00, 
    0x00, 0x00, 0x00, 0x09, 0xc8, 0x00, 0x00, 0x00, 0x04, 0x00, 0x00, 0x00, 
    0xff, 0xff, 0xff, 0xff, 0x20, 0x00, 0x00, 0x00, 0x20, 0x00, 0x00, 0x00, 
    0x10, 0x00, 0x00, 0x00, 0x54, 0xf3, 0xff, 0xff, 0x08, 0x00, 0x00, 0x00, 
    0x14, 0x00, 0x00, 0x00, 0x01, 0x00, 0x00, 0x00, 0x80, 0xff, 0xff, 0xff, 
    0xff, 0xff, 0xff, 0xff, 0x00, 0x00, 0x00, 0x00, 0x01, 0x00, 0x00, 0x00, 
    0x57, 0x25, 0xc2, 0x39, 0x86, 0x00, 0x00, 0x00, 0x73, 0x65, 0x71, 0x75, 
    0x65, 0x6e, 0x74, 0x69, 0x61, 0x6c, 0x5f, 0x33, 0x2f, 0x63, 0x6f, 0x6e, 
    0x76, 0x32, 0x64, 0x5f, 0x31, 0x30, 0x2f, 0x52, 0x65, 0x6c, 0x75, 0x3b, 
    0x73, 0x65, 0x71, 0x75, 0x65, 0x6e, 0x74, 0x69, 0x61, 0x6c, 0x5f, 0x33, 
    0x2f, 0x63, 0x6f, 0x6e, 0x76, 0x32, 0x64, 0x5f, 0x31, 0x30, 0x2f, 0x42, 
    0x69, 0x61, 0x73, 0x41, 0x64, 0x64, 0x3b, 0x73, 0x65, 0x71, 0x75, 0x65, 
    0x6e, 0x74, 0x69, 0x61, 0x6c, 0x5f, 0x33, 0x2f, 0x63, 0x6f, 0x6e, 0x76, 
    0x32, 0x64, 0x5f, 0x31, 0x30, 0x2f, 0x43, 0x6f, 0x6e, 0x76, 0x32, 0x44, 
    0x3b, 0x73, 0x65, 0x71, 0x75, 0x65, 0x6e, 0x74, 0x69, 0x61, 0x6c, 0x5f, 
    0x33, 0x2f, 0x63, 0x6f, 0x6e, 0x76, 0x32, 0x64, 0x5f, 0x31, 0x30, 0x2f, 
    0x42, 0x69, 0x61, 0x73, 0x41, 0x64, 0x64, 0x2f, 0x52, 0x65, 0x61, 0x64, 
    0x56, 0x61, 0x72, 0x69, 0x61, 0x62, 0x6c, 0x65, 0x4f, 0x70, 0x00, 0x00, 
    0x04, 0x00, 0x00, 0x00, 0x01, 0x00, 0x00, 0x00, 0x20, 0x00, 0x00, 0x00, 
    0x20, 0x00, 0x00, 0x00, 0x10, 0x00, 0x00, 0x00, 0x62, 0xf4, 0xff, 0xff, 
    0x00, 0x00, 0x00, 0x01, 0x18, 0x00, 0x00, 0x00, 0x28, 0x00, 0x00, 0x00, 
    0x48, 0x00, 0x00, 0x00, 0x0d, 0x00, 0x00, 0x00, 0x00, 0x00, 0x00, 0x09, 
    0x68, 0x00, 0x00, 0x00, 0x04, 0x00, 0x00, 0x00, 0xff, 0xff, 0xff, 0xff, 
    0x20, 0x00, 0x00, 0x00, 0x20, 0x00, 0x00, 0x00, 0x08, 0x00, 0x00, 0x00, 
    0x4c, 0xf4, 0xff, 0xff, 0x08, 0x00, 0x00, 0x00, 0x14, 0x00, 0x00, 0x00, 
    0x01, 0x00, 0x00, 0x00, 0x80, 0xff, 0xff, 0xff, 0xff, 0xff, 0xff, 0xff, 
    0x00, 0x00, 0x00, 0x00, 0x01, 0x00, 0x00, 0x00, 0xe4, 0x6a, 0x29, 0x39, 
    0x24, 0x00, 0x00, 0x00, 0x73, 0x65, 0x71, 0x75, 0x65, 0x6e, 0x74, 0x69, 
    0x61, 0x6c, 0x5f, 0x33, 0x2f, 0x6d, 0x61, 0x78, 0x5f, 0x70, 0x6f, 0x6f, 
    0x6c, 0x69, 0x6e, 0x67, 0x32, 0x64, 0x5f, 0x36, 0x2f, 0x4d, 0x61, 0x78, 
    0x50, 0x6f, 0x6f, 0x6c, 0x00, 0x00, 0x00, 0x00, 0x04, 0x00, 0x00, 0x00, 
    0x01, 0x00, 0x00, 0x00, 0x20, 0x00, 0x00, 0x00, 0x20, 0x00, 0x00, 0x00, 
    0x08, 0x00, 0x00, 0x00, 0xfa, 0xf4, 0xff, 0xff, 0x00, 0x00, 0x00, 0x01, 
    0x18, 0x00, 0x00, 0x00, 0x28, 0x00, 0x00, 0x00, 0x44, 0x00, 0x00, 0x00, 
    0x0c, 0x00, 0x00, 0x00, 0x00, 0x00, 0x00, 0x09, 0xc0, 0x00, 0x00, 0x00, 
    0x04, 0x00, 0x00, 0x00, 0xff, 0xff, 0xff, 0xff, 0x40, 0x00, 0x00, 0x00, 
    0x40, 0x00, 0x00, 0x00, 0x08, 0x00, 0x00, 0x00, 0xe4, 0xf4, 0xff, 0xff, 
    0x08, 0x00, 0x00, 0x00, 0x10, 0x00, 0x00, 0x00, 0x01, 0x00, 0x00, 0x00, 
    0x80, 0xff, 0xff, 0xff, 0xff, 0xff, 0xff, 0xff, 0x01, 0x00, 0x00, 0x00, 
    0xe4, 0x6a, 0x29, 0x39, 0x83, 0x00, 0x00, 0x00, 0x73, 0x65, 0x71, 0x75, 
    0x65, 0x6e, 0x74, 0x69, 0x61, 0x6c, 0x5f, 0x33, 0x2f, 0x63, 0x6f, 0x6e, 
    0x76, 0x32, 0x64, 0x5f, 0x39, 0x2f, 0x52, 0x65, 0x6c, 0x75, 0x3b, 0x73, 
    0x65, 0x71, 0x75, 0x65, 0x6e, 0x74, 0x69, 0x61, 0x6c, 0x5f, 0x33, 0x2f, 
    0x63, 0x6f, 0x6e, 0x76, 0x32, 0x64, 0x5f, 0x39, 0x2f, 0x42, 0x69, 0x61, 
    0x73, 0x41, 0x64, 0x64, 0x3b, 0x73, 0x65, 0x71, 0x75, 0x65, 0x6e, 0x74, 
    0x69, 0x61, 0x6c, 0x5f, 0x33, 0x2f, 0x63, 0x6f, 0x6e, 0x76, 0x32, 0x64, 
    0x5f, 0x39, 0x2f, 0x43, 0x6f, 0x6e, 0x76, 0x32, 0x44, 0x3b, 0x73, 0x65, 
    0x71, 0x75, 0x65, 0x6e, 0x74, 0x69, 0x61, 0x6c, 0x5f, 0x33, 0x2f, 0x63, 
    0x6f, 0x6e, 0x76, 0x32, 0x64, 0x5f, 0x39, 0x2f, 0x42, 0x69, 0x61, 0x73, 
    0x41, 0x64, 0x64, 0x2f, 0x52, 0x65, 0x61, 0x64, 0x56, 0x61, 0x72, 0x69, 
    0x61, 0x62, 0x6c, 0x65, 0x4f, 0x70, 0x31, 0x00, 0x04, 0x00, 0x00, 0x00, 
    0x01, 0x00, 0x00, 0x00, 0x40, 0x00, 0x00, 0x00, 0x40, 0x00, 0x00, 0x00, 
    0x08, 0x00, 0x00, 0x00, 0xea, 0xf5, 0xff, 0xff, 0x00, 0x00, 0x00, 0x01, 
    0x18, 0x00, 0x00, 0x00, 0x28, 0x00, 0x00, 0x00, 0x48, 0x00, 0x00, 0x00, 
    0x0b, 0x00, 0x00, 0x00, 0x00, 0x00, 0x00, 0x09, 0x50, 0x00, 0x00, 0x00, 
    0x04, 0x00, 0x00, 0x00, 0xff, 0xff, 0xff, 0xff, 0x40, 0x00, 0x00, 0x00, 
    0x40, 0x00, 0x00, 0x00, 0x03, 0x00, 0x00, 0x00, 0xd4, 0xf5, 0xff, 0xff, 
    0x08, 0x00, 0x00, 0x00, 0x14, 0x00, 0x00, 0x00, 0x01, 0x00, 0x00, 0x00, 
    0x80, 0xff, 0xff, 0xff, 0xff, 0xff, 0xff, 0xff, 0x00, 0x00, 0x00, 0x00, 
    0x01, 0x00, 0x00, 0x00, 0x81, 0x80, 0x80, 0x3b, 0x0c, 0x00, 0x00, 0x00, 
    0x74, 0x66, 0x6c, 0x2e, 0x71, 0x75, 0x61, 0x6e, 0x74, 0x69, 0x7a, 0x65, 
    0x00, 0x00, 0x00, 0x00, 0x04, 0x00, 0x00, 0x00, 0x01, 0x00, 0x00, 0x00, 
    0x40, 0x00, 0x00, 0x00, 0x40, 0x00, 0x00, 0x00, 0x03, 0x00, 0x00, 0x00, 
    0xf2, 0xf6, 0xff, 0xff, 0x00, 0x00, 0x00, 0x01, 0x14, 0x00, 0x00, 0x00, 
    0x88, 0x00, 0x00, 0x00, 0x0a, 0x00, 0x00, 0x00, 0x00, 0x00, 0x00, 0x09, 
    0x04, 0x01, 0x00, 0x00, 0x3c, 0xf6, 0xff, 0xff, 0x08, 0x00, 0x00, 0x00, 
    0x4c, 0x00, 0x00, 0x00, 0x08, 0x00, 0x00, 0x00, 0x00, 0x00, 0x00, 0x00, 
    0x00, 0x00, 0x00, 0x00, 0x00, 0x00, 0x00, 0x00, 0x00, 0x00, 0x00, 0x00, 
    0x00, 0x00, 0x00, 0x00, 0x00, 0x00, 0x00, 0x00, 0x00, 0x00, 0x00, 0x00, 
    0x00, 0x00, 0x00, 0x00, 0x00, 0x00, 0x00, 0x00, 0x00, 0x00, 0x00, 0x00, 
    0x00, 0x00, 0x00, 0x00, 0x00, 0x00, 0x00, 0x00, 0x00, 0x00, 0x00, 0x00, 
    0x00, 0x00, 0x00, 0x00, 0x00, 0x00, 0x00, 0x00, 0x00, 0x00, 0x00, 0x00, 
    0x00, 0x00, 0x00, 0x00, 0x08, 0x00, 0x00, 0x00, 0x83, 0x5f, 0x17, 0x37, 
    0xf7, 0xaa, 0x0f, 0x37, 0xb0, 0x83, 0x1e, 0x37, 0x28, 0x02, 0x21, 0x37, 
    0xc6, 0x62, 0x19, 0x37, 0x71, 0x1f, 0x1b, 0x37, 0xbc, 0x86, 0x1c, 0x37, 
    0xfd, 0xf6, 0x01, 0x37, 0x82, 0x00, 0x00, 0x00, 0x73, 0x65, 0x71, 0x75, 
    0x65, 0x6e, 0x74, 0x69, 0x61, 0x6c, 0x5f, 0x33, 0x2f, 0x63, 0x6f, 0x6e, 
    0x76, 0x32, 0x64, 0x5f, 0x39, 0x2f, 0x52, 0x65, 0x6c, 0x75, 0x3b, 0x73, 
    0x65, 0x71, 0x75, 0x65, 0x6e, 0x74, 0x69, 0x61, 0x6c, 0x5f, 0x33, 0x2f, 
    0x63, 0x6f, 0x6e, 0x76, 0x32, 0x64, 0x5f, 0x39, 0x2f, 0x42, 0x69, 0x61, 
    0x73, 0x41, 0x64, 0x64, 0x3b, 0x73, 0x65, 0x71, 0x75, 0x65, 0x6e, 0x74, 
    0x69, 0x61, 0x6c, 0x5f, 0x33, 0x2f, 0x63, 0x6f, 0x6e, 0x76, 0x32, 0x64, 
    0x5f, 0x39, 0x2f, 0x43, 0x6f, 0x6e, 0x76, 0x32, 0x44, 0x3b, 0x73, 0x65, 
    0x71, 0x75, 0x65, 0x6e, 0x74, 0x69, 0x61, 0x6c, 0x5f, 0x33, 0x2f, 0x63, 
    0x6f, 0x6e, 0x76, 0x32, 0x64, 0x5f, 0x39, 0x2f, 0x42, 0x69, 0x61, 0x73, 
    0x41, 0x64, 0x64, 0x2f, 0x52, 0x65, 0x61, 0x64, 0x56, 0x61, 0x72, 0x69, 
    0x61, 0x62, 0x6c, 0x65, 0x4f, 0x70, 0x00, 0x00, 0x04, 0x00, 0x00, 0x00, 
    0x08, 0x00, 0x00, 0x00, 0x03, 0x00, 0x00, 0x00, 0x03, 0x00, 0x00, 0x00, 
    0x03, 0x00, 0x00, 0x00, 0x22, 0xf8, 0xff, 0xff, 0x00, 0x00, 0x00, 0x01, 
    0x14, 0x00, 0x00, 0x00, 0x88, 0x00, 0x00, 0x00, 0x09, 0x00, 0x00, 0x00, 
    0x00, 0x00, 0x00, 0x02, 0xb0, 0x00, 0x00, 0x00, 0x6c, 0xf7, 0xff, 0xff, 
    0x08, 0x00, 0x00, 0x00, 0x4c, 0x00, 0x00, 0x00, 0x08, 0x00, 0x00, 0x00, 
    0x00, 0x00, 0x00, 0x00, 0x00, 0x00, 0x00, 0x00, 0x00, 0x00, 0x00, 0x00, 
    0x00, 0x00, 0x00, 0x00, 0x00, 0x00, 0x00, 0x00, 0x00, 0x00, 0x00, 0x00, 
    0x00, 0x00, 0x00, 0x00, 0x00, 0x00, 0x00, 0x00, 0x00, 0x00, 0x00, 0x00, 
    0x00, 0x00, 0x00, 0x00, 0x00, 0x00, 0x00, 0x00, 0x00, 0x00, 0x00, 0x00, 
    0x00, 0x00, 0x00, 0x00, 0x00, 0x00, 0x00, 0x00, 0x00, 0x00, 0x00, 0x00, 
    0x00, 0x00, 0x00, 0x00, 0x00, 0x00, 0x00, 0x00, 0x08, 0x00, 0x00, 0x00, 
    0x7b, 0xf7, 0x17, 0x33, 0x33, 0x3b, 0x10, 0x33, 0xd3, 0x22, 0x1f, 0x33, 
    0xcc, 0xa3, 0x21, 0x33, 0xc3, 0xfc, 0x19, 0x33, 0x2d, 0xbb, 0x1b, 0x33, 
    0xe0, 0x23, 0x1d, 0x33, 0x77, 0x79, 0x02, 0x33, 0x2c, 0x00, 0x00, 0x00, 
    0x73, 0x65, 0x71, 0x75, 0x65, 0x6e, 0x74, 0x69, 0x61, 0x6c, 0x5f, 0x33, 
    0x2f, 0x63, 0x6f, 0x6e, 0x76, 0x32, 0x64, 0x5f, 0x39, 0x2f, 0x42, 0x69, 
    0x61, 0x73, 0x41, 0x64, 0x64, 0x2f, 0x52, 0x65, 0x61, 0x64, 0x56, 0x61, 
    0x72, 0x69, 0x61, 0x62, 0x6c, 0x65, 0x4f, 0x70, 0x00, 0x00, 0x00, 0x00, 
    0x01, 0x00, 0x00, 0x00, 0x08, 0x00, 0x00, 0x00, 0xf2, 0xf8, 0xff, 0xff, 
    0x00, 0x00, 0x00, 0x01, 0x14, 0x00, 0x00, 0x00, 0xe4, 0x00, 0x00, 0x00, 
    0x08, 0x00, 0x00, 0x00, 0x00, 0x00, 0x00, 0x09, 0xfc, 0x00, 0x00, 0x00, 
    0x3c, 0xf8, 0xff, 0xff, 0x08, 0x00, 0x00, 0x00, 0x88, 0x00, 0x00, 0x00, 
    0x10, 0x00, 0x00, 0x00, 0x00, 0x00, 0x00, 0x00, 0x00, 0x00, 0x00, 0x00, 
    0x00, 0x00, 0x00, 0x00, 0x00, 0x00, 0x00, 0x00, 0x00, 0x00, 0x00, 0x00, 
    0x00, 0x00, 0x00, 0x00, 0x00, 0x00, 0x00, 0x00, 0x00, 0x00, 0x00, 0x00, 
    0x00, 0x00, 0x00, 0x00, 0x00, 0x00, 0x00, 0x00, 0x00, 0x00, 0x00, 0x00, 
    0x00, 0x00, 0x00, 0x00, 0x00, 0x00, 0x00, 0x00, 0x00, 0x00, 0x00, 0x00, 
    0x00, 0x00, 0x00, 0x00, 0x00, 0x00, 0x00, 0x00, 0x00, 0x00, 0x00, 0x00, 
    0x00, 0x00, 0x00, 0x00, 0x00, 0x00, 0x00, 0x00, 0x00, 0x00, 0x00, 0x00, 
    0x00, 0x00, 0x00, 0x00, 0x00, 0x00, 0x00, 0x00, 0x00, 0x00, 0x00, 0x00, 
    0x00, 0x00, 0x00, 0x00, 0x00, 0x00, 0x00, 0x00, 0x00, 0x00, 0x00, 0x00, 
    0x00, 0x00, 0x00, 0x00, 0x00, 0x00, 0x00, 0x00, 0x00, 0x00, 0x00, 0x00, 
    0x00, 0x00, 0x00, 0x00, 0x00, 0x00, 0x00, 0x00, 0x00, 0x00, 0x00, 0x00, 
    0x10, 0x00, 0x00, 0x00, 0x7a, 0xf2, 0x0b, 0x3b, 0x7f, 0x7e, 0x02, 0x3b, 
    0x57, 0x1b, 0x0a, 0x3b, 0x3a, 0x6a, 0x1c, 0x3b, 0x77, 0x82, 0x2d, 0x3b, 
    0x10, 0x01, 0x89, 0x3b, 0x28, 0xbb, 0x51, 0x3b, 0xf2, 0x3a, 0x63, 0x3b, 
    0x09, 0xdb, 0x3d, 0x3b, 0xa4, 0xde, 0x2a, 0x3b, 0xbb, 0x70, 0x7b, 0x3b, 
    0xb2, 0x7f, 0x33, 0x3b, 0x04, 0x1f, 0x4f, 0x3b, 0x07, 0x08, 0x11, 0x3b, 
    0x76, 0x63, 0x48, 0x3b, 0x7c, 0x30, 0x4e, 0x3b, 0x1d, 0x00, 0x00, 0x00, 
    0x73, 0x65, 0x71, 0x75, 0x65, 0x6e, 0x74, 0x69, 0x61, 0x6c, 0x5f, 0x33, 
    0x2f, 0x63, 0x6f, 0x6e, 0x76, 0x32, 0x64, 0x5f, 0x31, 0x30, 0x2f, 0x43, 
    0x6f, 0x6e, 0x76, 0x32, 0x44, 0x00, 0x00, 0x00, 0x04, 0x00, 0x00, 0x00, 
    0x10, 0x00, 0x00, 0x00, 0x03, 0x00, 0x00, 0x00, 0x03, 0x00, 0x00, 0x00, 
    0x08, 0x00, 0x00, 0x00, 0x1a, 0xfa, 0xff, 0xff, 0x00, 0x00, 0x00, 0x01, 
    0x14, 0x00, 0x00, 0x00, 0xe8, 0x00, 0x00, 0x00, 0x07, 0x00, 0x00, 0x00, 
    0x00, 0x00, 0x00, 0x02, 0x10, 0x01, 0x00, 0x00, 0x64, 0xf9, 0xff, 0xff, 
    0x08, 0x00, 0x00, 0x00, 0x8c, 0x00, 0x00, 0x00, 0x10, 0x00, 0x00, 0x00, 
    0x00, 0x00, 0x00, 0x00, 0x00, 0x00, 0x00, 0x00, 0x00, 0x00, 0x00, 0x00, 
    0x00, 0x00, 0x00, 0x00, 0x00, 0x00, 0x00, 0x00, 0x00, 0x00, 0x00, 0x00, 
    0x00, 0x00, 0x00, 0x00, 0x00, 0x00, 0x00, 0x00, 0x00, 0x00, 0x00, 0x00, 
    0x00, 0x00, 0x00, 0x00, 0x00, 0x00, 0x00, 0x00, 0x00, 0x00, 0x00, 0x00, 
    0x00, 0x00, 0x00, 0x00, 0x00, 0x00, 0x00, 0x00, 0x00, 0x00, 0x00, 0x00, 
    0x00, 0x00, 0x00, 0x00, 0x00, 0x00, 0x00, 0x00, 0x00, 0x00, 0x00, 0x00, 
    0x00, 0x00, 0x00, 0x00, 0x00, 0x00, 0x00, 0x00, 0x00, 0x00, 0x00, 0x00, 
    0x00, 0x00, 0x00, 0x00, 0x00, 0x00, 0x00, 0x00, 0x00, 0x00, 0x00, 0x00, 
    0x00, 0x00, 0x00, 0x00, 0x00, 0x00, 0x00, 0x00, 0x00, 0x00, 0x00, 0x00, 
    0x00, 0x00, 0x00, 0x00, 0x00, 0x00, 0x00, 0x00, 0x00, 0x00, 0x00, 0x00, 
    0x00, 0x00, 0x00, 0x00, 0x00, 0x00, 0x00, 0x00, 0x00, 0x00, 0x00, 0x00, 
    0x10, 0x00, 0x00, 0x00, 0x03, 0x3b, 0xb9, 0x34, 0xfd, 0xb7, 0xac, 0x34, 
    0x6e, 0xcb, 0xb6, 0x34, 0xdf, 0x06, 0xcf, 0x34, 0x26, 0xa7, 0xe5, 0x34, 
    0xd0, 0x55, 0x35, 0x35, 0x20, 0xcc, 0x0a, 0x35, 0xcb, 0x60, 0x16, 0x35, 
    0xbd, 0x49, 0xfb, 0x34, 0xa5, 0x28, 0xe2, 0x34, 0x68, 0x66, 0x26, 0x35, 
    0x7e, 0x94, 0xed, 0x34, 0xf5, 0x11, 0x09, 0x35, 0xb6, 0xf5, 0xbf, 0x34, 
    0x55, 0x9d, 0x04, 0x35, 0x1a, 0x74, 0x08, 0x35, 0x2d, 0x00, 0x00, 0x00, 
    0x73, 0x65, 0x71, 0x75, 0x65, 0x6e, 0x74, 0x69, 0x61, 0x6c, 0x5f, 0x33, 
    0x2f, 0x63, 0x6f, 0x6e, 0x76, 0x32, 0x64, 0x5f, 0x31, 0x30, 0x2f, 0x42, 
    0x69, 0x61, 0x73, 0x41, 0x64, 0x64, 0x2f, 0x52, 0x65, 0x61, 0x64, 0x56, 
    0x61, 0x72, 0x69, 0x61, 0x62, 0x6c, 0x65, 0x4f, 0x70, 0x00, 0x00, 0x00, 
    0x01, 0x00, 0x00, 0x00, 0x10, 0x00, 0x00, 0x00, 0x4a, 0xfb, 0xff, 0xff, 
    0x00, 0x00, 0x00, 0x01, 0x14, 0x00, 0x00, 0x00, 0xa4, 0x01, 0x00, 0x00, 
    0x06, 0x00, 0x00, 0x00, 0x00, 0x00, 0x00, 0x09, 0xbc, 0x01, 0x00, 0x00, 
    0x94, 0xfa, 0xff, 0xff, 0x08, 0x00, 0x00, 0x00, 0x08, 0x01, 0x00, 0x00, 
    0x20, 0x00, 0x00, 0x00, 0x00, 0x00, 0x00, 0x00, 0x00, 0x00, 0x00, 0x00, 
    0x00, 0x00, 0x00, 0x00, 0x00, 0x00, 0x00, 0x00, 0x00, 0x00, 0x00, 0x00, 
    0x00, 0x00, 0x00, 0x00, 0x00, 0x00, 0x00, 0x00, 0x00, 0x00, 0x00, 0x00, 
    0x00, 0x00, 0x00, 0x00, 0x00, 0x00, 0x00, 0x00, 0x00, 0x00, 0x00, 0x00, 
    0x00, 0x00, 0x00, 0x00, 0x00, 0x00, 0x00, 0x00, 0x00, 0x00, 0x00, 0x00, 
    0x00, 0x00, 0x00, 0x00, 0x00, 0x00, 0x00, 0x00, 0x00, 0x00, 0x00, 0x00, 
    0x00, 0x00, 0x00, 0x00, 0x00, 0x00, 0x00, 0x00, 0x00, 0x00, 0x00, 0x00, 
    0x00, 0x00, 0x00, 0x00, 0x00, 0x00, 0x00, 0x00, 0x00, 0x00, 0x00, 0x00, 
    0x00, 0x00, 0x00, 0x00, 0x00, 0x00, 0x00, 0x00, 0x00, 0x00, 0x00, 0x00, 
    0x00, 0x00, 0x00, 0x00, 0x00, 0x00, 0x00, 0x00, 0x00, 0x00, 0x00, 0x00, 
    0x00, 0x00, 0x00, 0x00, 0x00, 0x00, 0x00, 0x00, 0x00, 0x00, 0x00, 0x00, 
    0x00, 0x00, 0x00, 0x00, 0x00, 0x00, 0x00, 0x00, 0x00, 0x00, 0x00, 0x00, 
    0x00, 0x00, 0x00, 0x00, 0x00, 0x00, 0x00, 0x00, 0x00, 0x00, 0x00, 0x00, 
    0x00, 0x00, 0x00, 0x00, 0x00, 0x00, 0x00, 0x00, 0x00, 0x00, 0x00, 0x00, 
    0x00, 0x00, 0x00, 0x00, 0x00, 0x00, 0x00, 0x00, 0x00, 0x00, 0x00, 0x00, 
    0x00, 0x00, 0x00, 0x00, 0x00, 0x00, 0x00, 0x00, 0x00, 0x00, 0x00, 0x00, 
    0x00, 0x00, 0x00, 0x00, 0x00, 0x00, 0x00, 0x00, 0x00, 0x00, 0x00, 0x00, 
    0x00, 0x00, 0x00, 0x00, 0x00, 0x00, 0x00, 0x00, 0x00, 0x00, 0x00, 0x00, 
    0x00, 0x00, 0x00, 0x00, 0x00, 0x00, 0x00, 0x00, 0x00, 0x00, 0x00, 0x00, 
    0x00, 0x00, 0x00, 0x00, 0x00, 0x00, 0x00, 0x00, 0x00, 0x00, 0x00, 0x00, 
    0x00, 0x00, 0x00, 0x00, 0x00, 0x00, 0x00, 0x00, 0x00, 0x00, 0x00, 0x00, 
    0x00, 0x00, 0x00, 0x00, 0x00, 0x00, 0x00, 0x00, 0x20, 0x00, 0x00, 0x00, 
    0x0c, 0x61, 0x89, 0x3b, 0x56, 0x9d, 0x62, 0x3b, 0x36, 0xdf, 0x6c, 0x3b, 
    0xef, 0x90, 0x47, 0x3b, 0xa8, 0x46, 0x8e, 0x3b, 0x7c, 0x1c, 0x31, 0x3b, 
    0x38, 0x03, 0x95, 0x3b, 0x87, 0x1e, 0x6e, 0x3b, 0xdc, 0x7c, 0x75, 0x3b, 
    0xd2, 0x7f, 0x75, 0x3b, 0xf2, 0x40, 0x80, 0x3b, 0x1f, 0x56, 0x7a, 0x3b, 
    0xfe, 0xf9, 0x54, 0x3b, 0x47, 0x80, 0x72, 0x3b, 0x9e, 0x79, 0x72, 0x3b, 
    0x80, 0xbc, 0x6f, 0x3b, 0x18, 0xd5, 0x75, 0x3b, 0x20, 0x85, 0x8c, 0x3b, 
    0x03, 0x94, 0x69, 0x3b, 0x42, 0x14, 0x8b, 0x3b, 0x8f, 0x0b, 0x82, 0x3b, 
    0x06, 0x3b, 0x75, 0x3b, 0xb9, 0xc7, 0x62, 0x3b, 0x65, 0xf7, 0x75, 0x3b, 
    0x7c, 0x14, 0x6b, 0x3b, 0x25, 0xf0, 0x63, 0x3b, 0x20, 0x9d, 0x3e, 0x3b, 
    0x2d, 0x19, 0xbc, 0x3a, 0xa7, 0xb7, 0x3a, 0x3b, 0x0a, 0x6d, 0x85, 0x3b, 
    0x14, 0xe1, 0x4d, 0x3b, 0x55, 0x28, 0x84, 0x3b, 0x1d, 0x00, 0x00, 0x00, 
    0x73, 0x65, 0x71, 0x75, 0x65, 0x6e, 0x74, 0x69, 0x61, 0x6c, 0x5f, 0x33, 
    0x2f, 0x63, 0x6f, 0x6e, 0x76, 0x32, 0x64, 0x5f, 0x31, 0x31, 0x2f, 0x43, 
    0x6f, 0x6e, 0x76, 0x32, 0x44, 0x00, 0x00, 0x00, 0x04, 0x00, 0x00, 0x00, 
    0x20, 0x00, 0x00, 0x00, 0x03, 0x00, 0x00, 0x00, 0x03, 0x00, 0x00, 0x00, 
    0x10, 0x00, 0x00, 0x00, 0x32, 0xfd, 0xff, 0xff, 0x00, 0x00, 0x00, 0x01, 
    0x14, 0x00, 0x00, 0x00, 0xa8, 0x01, 0x00, 0x00, 0x05, 0x00, 0x00, 0x00, 
    0x00, 0x00, 0x00, 0x02, 0xd0, 0x01, 0x00, 0x00, 0x7c, 0xfc, 0xff, 0xff, 
    0x08, 0x00, 0x00, 0x00, 0x0c, 0x01, 0x00, 0x00, 0x20, 0x00, 0x00, 0x00, 
    0x00, 0x00, 0x00, 0x00, 0x00, 0x00, 0x00, 0x00, 0x00, 0x00, 0x00, 0x00, 
    0x00, 0x00, 0x00, 0x00, 0x00, 0x00, 0x00, 0x00, 0x00, 0x00, 0x00, 0x00, 
    0x00, 0x00, 0x00, 0x00, 0x00, 0x00, 0x00, 0x00, 0x00, 0x00, 0x00, 0x00, 
    0x00, 0x00, 0x00, 0x00, 0x00, 0x00, 0x00, 0x00, 0x00, 0x00, 0x00, 0x00, 
    0x00, 0x00, 0x00, 0x00, 0x00, 0x00, 0x00, 0x00, 0x00, 0x00, 0x00, 0x00, 
    0x00, 0x00, 0x00, 0x00, 0x00, 0x00, 0x00, 0x00, 0x00, 0x00, 0x00, 0x00, 
    0x00, 0x00, 0x00, 0x00, 0x00, 0x00, 0x00, 0x00, 0x00, 0x00, 0x00, 0x00, 
    0x00, 0x00, 0x00, 0x00, 0x00, 0x00, 0x00, 0x00, 0x00, 0x00, 0x00, 0x00, 
    0x00, 0x00, 0x00, 0x00, 0x00, 0x00, 0x00, 0x00, 0x00, 0x00, 0x00, 0x00, 
    0x00, 0x00, 0x00, 0x00, 0x00, 0x00, 0x00, 0x00, 0x00, 0x00, 0x00, 0x00, 
    0x00, 0x00, 0x00, 0x00, 0x00, 0x00, 0x00, 0x00, 0x00, 0x00, 0x00, 0x00, 
    0x00, 0x00, 0x00, 0x00, 0x00, 0x00, 0x00, 0x00, 0x00, 0x00, 0x00, 0x00, 
    0x00, 0x00, 0x00, 0x00, 0x00, 0x00, 0x00, 0x00, 0x00, 0x00, 0x00, 0x00, 
    0x00, 0x00, 0x00, 0x00, 0x00, 0x00, 0x00, 0x00, 0x00, 0x00, 0x00, 0x00, 
    0x00, 0x00, 0x00, 0x00, 0x00, 0x00, 0x00, 0x00, 0x00, 0x00, 0x00, 0x00, 
    0x00, 0x00, 0x00, 0x00, 0x00, 0x00, 0x00, 0x00, 0x00, 0x00, 0x00, 0x00, 
    0x00, 0x00, 0x00, 0x00, 0x00, 0x00, 0x00, 0x00, 0x00, 0x00, 0x00, 0x00, 
    0x00, 0x00, 0x00, 0x00, 0x00, 0x00, 0x00, 0x00, 0x00, 0x00, 0x00, 0x00, 
    0x00, 0x00, 0x00, 0x00, 0x00, 0x00, 0x00, 0x00, 0x00, 0x00, 0x00, 0x00, 
    0x00, 0x00, 0x00, 0x00, 0x00, 0x00, 0x00, 0x00, 0x00, 0x00, 0x00, 0x00, 
    0x00, 0x00, 0x00, 0x00, 0x00, 0x00, 0x00, 0x00, 0x00, 0x00, 0x00, 0x00, 
    0x00, 0x00, 0x00, 0x00, 0x00, 0x00, 0x00, 0x00, 0x20, 0x00, 0x00, 0x00, 
    0x2a, 0x5f, 0xd0, 0x35, 0x49, 0xdc, 0xab, 0x35, 0xb4, 0xa3, 0xb3, 0x35, 
    0xf1, 0x58, 0x97, 0x35, 0x98, 0xcc, 0xd7, 0x35, 0x6b, 0x51, 0x86, 0x35, 
    0x59, 0x04, 0xe2, 0x35, 0xde, 0x95, 0xb4, 0x35, 0x6d, 0x2c, 0xba, 0x35, 
    0xac, 0x2e, 0xba, 0x35, 0xd9, 0x87, 0xc2, 0x35, 0xc7, 0xd9, 0xbd, 0x35, 
    0x83, 0x84, 0xa1, 0x35, 0x95, 0xe8, 0xb7, 0x35, 0x88, 0xe3, 0xb7, 0x35, 
    0xd1, 0xcf, 0xb5, 0x35, 0x58, 0x6f, 0xba, 0x35, 0xc2, 0x22, 0xd5, 0x35, 
    0x3c, 0x24, 0xb1, 0x35, 0x46, 0xf3, 0xd2, 0x35, 0x74, 0x3f, 0xc5, 0x35, 
    0x7f, 0xfa, 0xb9, 0x35, 0x6e, 0xfc, 0xab, 0x35, 0x5b, 0x89, 0xba, 0x35, 
    0xd0, 0x47, 0xb2, 0x35, 0x3b, 0xdd, 0xac, 0x35, 0xe0, 0x8e, 0x90, 0x35, 
    0x84, 0xa6, 0x0e, 0x35, 0x69, 0x9a, 0x8d, 0x35, 0x2f, 0x60, 0xca, 0x35, 
    0x99, 0x22, 0x9c, 0x35, 0xae, 0x73, 0xc8, 0x35, 0x2d, 0x00, 0x00, 0x00, 
    0x73, 0x65, 0x71, 0x75, 0x65, 0x6e, 0x74, 0x69, 0x61, 0x6c, 0x5f, 0x33, 
    0x2f, 0x63, 0x6f, 0x6e, 0x76, 0x32, 0x64, 0x5f, 0x31, 0x31, 0x2f, 0x42, 
    0x69, 0x61, 0x73, 0x41, 0x64, 0x64, 0x2f, 0x52, 0x65, 0x61, 0x64, 0x56, 
    0x61, 0x72, 0x69, 0x61, 0x62, 0x6c, 0x65, 0x4f, 0x70, 0x00, 0x00, 0x00, 
    0x01, 0x00, 0x00, 0x00, 0x20, 0x00, 0x00, 0x00, 0x22, 0xff, 0xff, 0xff, 
    0x00, 0x00, 0x00, 0x01, 0x14, 0x00, 0x00, 0x00, 0x30, 0x00, 0x00, 0x00, 
    0x04, 0x00, 0x00, 0x00, 0x00, 0x00, 0x00, 0x09, 0x44, 0x00, 0x00, 0x00, 
    0x6c, 0xfe, 0xff, 0xff, 0x08, 0x00, 0x00, 0x00, 0x10, 0x00, 0x00, 0x00, 
    0x01, 0x00, 0x00, 0x00, 0x00, 0x00, 0x00, 0x00, 0x00, 0x00, 0x00, 0x00, 
    0x01, 0x00, 0x00, 0x00, 0xa9, 0x9b, 0xc2, 0x3b, 0x1b, 0x00, 0x00, 0x00, 
    0x73, 0x65, 0x71, 0x75, 0x65, 0x6e, 0x74, 0x69, 0x61, 0x6c, 0x5f, 0x33, 
    0x2f, 0x64, 0x65, 0x6e, 0x73, 0x65, 0x5f, 0x33, 0x2f, 0x4d, 0x61, 0x74, 
    0x4d, 0x75, 0x6c, 0x00, 0x02, 0x00, 0x00, 0x00, 0x01, 0x00, 0x00, 0x00, 
    0x20, 0x00, 0x00, 0x00, 0x8a, 0xff, 0xff, 0xff, 0x00, 0x00, 0x00, 0x01, 
    0x14, 0x00, 0x00, 0x00, 0x30, 0x00, 0x00, 0x00, 0x03, 0x00, 0x00, 0x00, 
    0x00, 0x00, 0x00, 0x02, 0x54, 0x00, 0x00, 0x00, 0xd4, 0xfe, 0xff, 0xff, 
    0x08, 0x00, 0x00, 0x00, 0x10, 0x00, 0x00, 0x00, 0x01, 0x00, 0x00, 0x00, 
    0x00, 0x00, 0x00, 0x00, 0x00, 0x00, 0x00, 0x00, 0x01, 0x00, 0x00, 0x00, 
    0x8b, 0xf5, 0xa9, 0x36, 0x2b, 0x00, 0x00, 0x00, 0x73, 0x65, 0x71, 0x75, 
    0x65, 0x6e, 0x74, 0x69, 0x61, 0x6c, 0x5f, 0x33, 0x2f, 0x64, 0x65, 0x6e, 
    0x73, 0x65, 0x5f, 0x33, 0x2f, 0x42, 0x69, 0x61, 0x73, 0x41, 0x64, 0x64, 
    0x2f, 0x52, 0x65, 0x61, 0x64, 0x56, 0x61, 0x72, 0x69, 0x61, 0x62, 0x6c, 
    0x65, 0x4f, 0x70, 0x00, 0x01, 0x00, 0x00, 0x00, 0x01, 0x00, 0x00, 0x00, 
    0x00, 0x00, 0x16, 0x00, 0x1c, 0x00, 0x18, 0x00, 0x17, 0x00, 0x10, 0x00, 
    0x0c, 0x00, 0x08, 0x00, 0x00, 0x00, 0x00, 0x00, 0x00, 0x00, 0x07, 0x00, 
    0x16, 0x00, 0x00, 0x00, 0x00, 0x00, 0x00, 0x01, 0x18, 0x00, 0x00, 0x00, 
    0x18, 0x00, 0x00, 0x00, 0x02, 0x00, 0x00, 0x00, 0x00, 0x00, 0x00, 0x02, 
    0x50, 0x00, 0x00, 0x00, 0x04, 0x00, 0x04, 0x00, 0x04, 0x00, 0x00, 0x00, 
    0x3e, 0x00, 0x00, 0x00, 0x73, 0x65, 0x71, 0x75, 0x65, 0x6e, 0x74, 0x69, 
    0x61, 0x6c, 0x5f, 0x33, 0x2f, 0x67, 0x6c, 0x6f, 0x62, 0x61, 0x6c, 0x5f, 
    0x61, 0x76, 0x65, 0x72, 0x61, 0x67, 0x65, 0x5f, 0x70, 0x6f, 0x6f, 0x6c, 
    0x69, 0x6e, 0x67, 0x32, 0x64, 0x5f, 0x33, 0x2f, 0x4d, 0x65, 0x61, 0x6e, 
    0x2f, 0x72, 0x65, 0x64, 0x75, 0x63, 0x74, 0x69, 0x6f, 0x6e, 0x5f, 0x69, 
    0x6e, 0x64, 0x69, 0x63, 0x65, 0x73, 0x00, 0x00, 0x01, 0x00, 0x00, 0x00, 
    0x02, 0x00, 0x00, 0x00, 0x00, 0x00, 0x16, 0x00, 0x20, 0x00, 0x1c, 0x00, 
    0x1b, 0x00, 0x14, 0x00, 0x10, 0x00, 0x0c, 0x00, 0x00, 0x00, 0x00, 0x00, 
    0x08, 0x00, 0x07, 0x00, 0x16, 0x00, 0x00, 0x00, 0x00, 0x00, 0x00, 0x01, 
    0x18, 0x00, 0x00, 0x00, 0x34, 0x00, 0x00, 0x00, 0x54, 0x00, 0x00, 0x00, 
    0x01, 0x00, 0x00, 0x00, 0x00, 0x00, 0x00, 0x03, 0x68, 0x00, 0x00, 0x00, 
    0x04, 0x00, 0x00, 0x00, 0xff, 0xff, 0xff, 0xff, 0x40, 0x00, 0x00, 0x00, 
    0x40, 0x00, 0x00, 0x00, 0x03, 0x00, 0x00, 0x00, 0x0c, 0x00, 0x0c, 0x00, 
    0x00, 0x00, 0x00, 0x00, 0x08, 0x00, 0x04, 0x00, 0x0c, 0x00, 0x00, 0x00, 
    0x08, 0x00, 0x00, 0x00, 0x14, 0x00, 0x00, 0x00, 0x01, 0x00, 0x00, 0x00, 
    0x00, 0x00, 0x00, 0x00, 0x00, 0x00, 0x00, 0x00, 0x00, 0x00, 0x00, 0x00, 
    0x01, 0x00, 0x00, 0x00, 0x81, 0x80, 0x80, 0x3b, 0x19, 0x00, 0x00, 0x00, 
    0x73, 0x65, 0x72, 0x76, 0x69, 0x6e, 0x67, 0x5f, 0x64, 0x65, 0x66, 0x61, 
    0x75, 0x6c, 0x74, 0x5f, 0x69, 0x6e, 0x70, 0x75, 0x74, 0x5f, 0x34, 0x3a, 
    0x30, 0x00, 0x00, 0x00, 0x04, 0x00, 0x00, 0x00, 0x01, 0x00, 0x00, 0x00, 
    0x40, 0x00, 0x00, 0x00, 0x40, 0x00, 0x00, 0x00, 0x03, 0x00, 0x00, 0x00, 
    0x06, 0x00, 0x00, 0x00, 0x80, 0x00, 0x00, 0x00, 0x60, 0x00, 0x00, 0x00, 
    0x40, 0x00, 0x00, 0x00, 0x2c, 0x00, 0x00, 0x00, 0x18, 0x00, 0x00, 0x00, 
    0x04, 0x00, 0x00, 0x00, 0xc0, 0xff, 0xff, 0xff, 0x0e, 0x00, 0x00, 0x00, 
    0x02, 0x00, 0x00, 0x00, 0x00, 0x00, 0x00, 0x0e, 0xd0, 0xff, 0xff, 0xff, 
    0x09, 0x00, 0x00, 0x00, 0x04, 0x00, 0x00, 0x00, 0x00, 0x00, 0x00, 0x09, 
    0xe0, 0xff, 0xff, 0xff, 0x28, 0x00, 0x00, 0x00, 0x02, 0x00, 0x00, 0x00, 
    0x00, 0x00, 0x00, 0x28, 0xf0, 0xff, 0xff, 0xff, 0x11, 0x00, 0x00, 0x00, 
    0x02, 0x00, 0x00, 0x00, 0x00, 0x00, 0x00, 0x11, 0x0c, 0x00, 0x10, 0x00, 
    0x0f, 0x00, 0x00, 0x00, 0x08, 0x00, 0x04, 0x00, 0x0c, 0x00, 0x00, 0x00, 
    0x03, 0x00, 0x00, 0x00, 0x03, 0x00, 0x00, 0x00, 0x00, 0x00, 0x00, 0x03, 
    0x0c, 0x00, 0x0c, 0x00, 0x0b, 0x00, 0x00, 0x00, 0x00, 0x00, 0x04, 0x00, 
    0x0c, 0x00, 0x00, 0x00, 0x72, 0x00, 0x00, 0x00, 0x00, 0x00, 0x00, 0x72
    
};

const unsigned int cifar10_model_quant_tflite_len = 12168;

#endif  // MODEL_TFLITE_H
